node {
  name: "Placeholder"
  op: "Placeholder"
  attr {
    key: "dtype"
    value {
      type: DT_FLOAT
    }
  }
  attr {
    key: "shape"
    value {
      shape {
      }
    }
  }
}
node {
  name: "Variable"
  op: "Const"
  attr {
    key: "dtype"
    value {
      type: DT_FLOAT
    }
  }
  attr {
    key: "value"
    value {
      tensor {
        dtype: DT_FLOAT
        tensor_shape {
          dim {
            size: 784
          }
          dim {
            size: 10
          }
        }
        tensor_content: "\000\000\000\000\000\000\000\000\000\000\000\000\000\000\000\000\000\000\000\000\000\000\000\000\000\000\000\000\000\000\000\000\000\000\000\000\000\000\000\000\000\000\000\000\000\000\000\000\000\000\000\000\000\000\000\000\000\000\000\000\000\000\000\000\000\000\000\000\000\000\000\000\000\000\000\000\000\000\000\000\000\000\000\000\000\000\000\000\000\000\000\000\000\000\000\000\000\000\000\000\000\000\000\000\000\000\000\000\000\000\000\000\000\000\000\000\000\000\000\000\000\000\000\000\000\000\000\000\000\000\000\000\000\000\000\000\000\000\000\000\000\000\000\000\000\000\000\000\000\000\000\000\000\000\000\000\000\000\000\000\000\000\000\000\000\000\000\000\000\000\000\000\000\000\000\000\000\000\000\000\000\000\000\000\000\000\000\000\000\000\000\000\000\000\000\000\000\000\000\000\000\000\000\000\000\000\000\000\000\000\000\000\000\000\000\000\000\000\000\000\000\000\000\000\000\000\000\000\000\000\000\000\000\000\000\000\000\000\000\000\000\000\000\000\000\000\000\000\000\000\000\000\000\000\000\000\000\000\000\000\000\000\000\000\000\000\000\000\000\000\000\000\000\000\000\000\000\000\000\000\000\000\000\000\000\000\000\000\000\000\000\000\000\000\000\000\000\000\000\000\000\000\000\000\000\000\000\000\000\000\000\000\000\000\000\000\000\000\000\000\000\000\000\000\000\000\000\000\000\000\000\000\000\000\000\000\000\000\000\000\000\000\000\000\000\000\000\000\000\000\000\000\000\000\000\000\000\000\000\000\000\000\000\000\000\000\000\000\000\000\000\000\000\000\000\000\000\000\000\000\000\000\000\000\000\000\000\000\000\000\000\000\000\000\000\000\000\000\000\000\000\000\000\000\000\000\000\000\000\000\000\000\000\000\000\000\000\000\000\000\000\000\000\000\000\000\000\000\000\000\000\000\000\000\000\000\000\000\000\000\000\000\000\000\000\000\000\000\000\000\000\000\000\000\000\000\000\000\000\000\000\000\000\000\000\000\000\000\000\000\000\000\000\000\000\000\000\000\000\000\000\000\000\000\000\000\000\000\222\n\007\222\000\000\000\000\0102\346\276\000\000\000\000\0102\346>\000\000\000\000\000\000\000\000\316\232\373\216\000\000\000\000\000\000\000\000\320\330\223\222\000\000\000\0009\006|\277\000\000\000\0009\006|?\000\000\000\000\000\000\000\000]\273\211\217\000\000\000\000\000\000\000\000\000\000\000\000\000\000\000\000\000\000\000\000\000\000\000\000\250H\311\210\000\000\000\000\000\000\000\000\000\000\000\000\000\000\000\000\000\000\000\000\000\000\000\000\000\000\000\000\000\000\000\000\000\000\000\000p0\206\206\000\000\000\000\000\000\000\000\000\000\000\000\000\000\000\000\000\000\000\000\000\000\000\000\000\000\000\000\000\000\000\000\000\000\000\000\000\000\000\000\000\000\000\000\000\000\000\000\000\000\000\000\000\000\000\000\000\000\000\000\000\000\000\000\000\000\000\000\000\000\000\000\000\000\000\000\000\000\000\000\000\000\000\000\000\000\000\000\000\000\000\000\000\000\000\000\000\000\000\000\000\000\000\000\000\000\000\000\000\000\000\000\000\000\000\000\000\000\000\000\000\000\000\000\000\000\000\000\000\000\000\000\000\000\000\000\000\000\000\000\000\000\000\000\000\000\000\000\000\000\000\000\000\000\000\000\000\000\000\000\000\000\000\000\000\000\000\000\000\000\000\000\000\000\000\000\000\000\000\000\000\000\000\000\000\000\000\000\000\000\000\000\000\000\000\000\000\000\000\000\000\000\000\000\000\000\000\000\000\000\000\000\000\000\000\000\000\000\000\000\000\000\000\000\000\000\000\000\000\000\000\000\000\000\000\000\000\000\000\000\000\000\000\000\000\000\000\000\000\000\000\000\000\000\000\000\000\000\000\000\000\000\000\000\000\000\000\000\000\000\000\000\000\000\000\000\000\000\000\000\000\000\000\000\000\000\000\000\000\000\000\000\000\000\000\000\000\000\000\000\000\000\000\000\000\000\000\000\000\000\000\000\000\000\000\000\000\000\000\000\000\000\000\000\000\000\000\000\000\000\000\000\000\000\000\000\000\000\000\000\000\000\000\000\000\000\000\000\000\000\000\000\000\000\000\000\000\000\000\000\000\000\000\000\000\000\000\000\000\000\000\000\000\000\000\000\000\000\000\000\000\000\000\000\000\000\000\000\000\000\000\000\000\000\000\000\000\000\000\000\000\000\000\000\000\000\000\000\000\000\000\000\000\000\000\000\000\000\000\000\000\000\000\000\000\000\000\000\000\000\000\000\000\000\000\000\000\000\000\000\000\000\000\000\000\000\000\000\000\000\000\000\000\000\000\000\000\000\000\000\000\000\000\000\000\000\000\000\000\000\000\000\000\000\000\000\000\000\000\000\000\000\000\000\000\000\000\000\000\000\000\000\000\000\000\000\000\000\000\000\000\000\000\000\000\000\000\000\000\000\000\000\000\000\000\000\000\000\000\000\000\000\000\000\000\000\000\000\000\000\000\000\000\000\000\000\000\000\000\000\000\000\000\000\000\000\000\000\000\000\000\000\000\000\000\000\000\000\000\000\000\000\000\000\000\000\000\000\000\000\000\000\000\000\000\000\000\000\000\000\000\000\000\000\000\000\000\000\000\000\000\000\000\000\000\000\000\000\000\000\000\000\000\000\000\000\000\000\000\000\000\000\000\000\000\000\000\000\000\000\000\000\000\000\000\000\000\000\000\000\000\000\000\000\000\000\000\000\000\000\000\000\000\000\000\000\000\000\000\000\000\000\000\000\000\000\000\000\000\000\000\000\000\000\000\000\000\000\310R\027\225\000\000\000\000\000\000\000\000\000\000\000\000\000\000\000\000\000\000\000\000\000\000\000\000\000\000\000\000\000\000\000\000\000\000\000\000/0\007\275\000\000\000\000.0\007=\000\000\000\000\000\000\000\000\000\000\000\000\000\000\000\000\000\000\000\000{\226\024\246\000\000\000\000\231\222{\300\000\000\000\000\232\222{@\000\000\000\000\000\000\000\000\000\000\000\000\000\000\000\000\311U\277\273\230\350\276;\000\000\000\000\022\002\000\301\000\000\000\000I+\001A\225\224\224\275\332\221\000\233\000\000\000\000\000\000\000\000\220~\221\276~]\221>\000\000\000\000\224\365\034\301\000\000\000\000\215\346$A\377\375\375\276f\304\033\235\016\026\340\260\314z\243\242\2447a\276E\373`>\000\000\000\000v\324,\300f\254\277\221\004\2404@\372\370\370\275\037+\016\235\177\345\002\262\257\264\267\254\366<\333\275M\263\341\276\000\000\000\000\236\013\370\277\'$\351\222\"\026\037@\341q\331\254\t\\\355\231 \233\257\261|\303@@{\233O\244\361\315f\300\000\000\000\000R:\263\300\362\241\327\222\273\325\331@7\000\360\276\214\004\'\211\235\305\022\2763\201\276@\031\022U\244\264\371\222\277\333u\213\232\216Vo\301{qP\277\363;^A\027#\027\300A\365J\222ln\017\277\325\236\034@S6\244\244\363\023\254=6 \206\230B8\217\3008\370\t\277$\020I@\010*\357\276]\224z\275\224\027\005\276\360\270~\230\236\316\200?\235\204\014@\250\210\357\2710\265\231?\021\215\030\260\222\256\200\300\212#9\203\t\017\303\276\254\230(\244KKK@\022\327\327?^\037\222@eJ\020\272+\267%\301\342\340`\276\252#\003@\265\2644\276\275\255\307\271\364O9\277\356\352\nAA[J\277f1\263@y`\255\270\373\2074\301\237\236\236\276\301\366\017?\370\366\366\276\301\236\305\266\234B\375\277&$\204@Qy\000\277\373\227\352\276\202\347\365\211\345H\217\300\006\205\010\275Ew2@\354\352j\276\366\311\307\233]\327\233\277\322G#\227:\334N\275=\024F\300\000\000\000\000C\240\n\277\240\303\310\276\3072\235@\000\000\000\000\204\014+\233VUU\277|\204\273\230\000\000\000\000\215r\330\277\000\000\000\000\026*m\300+\200\203\276\305\375\270@\000\000\000\000jOl\226\203\202\002\276~)\027\231\000\000\000\000f\373\216\276\000\000\000\000\036H_\300\207\030\356\264\213\'q@\000\000\000\000\222<4\225\013\274\031\230\373\005z\230\000\000\000\000Q\254\241\265\000\000\000\000\342Gb\300\000\350D\264\346Gb@\000\000\000\000\000\000\000\000*\000E\226\000\000\000\000\000\000\000\000F:\016\240\000\000\000\000\226\233\217\300\000\000\000\000\226\233\217@\000\000\000\000\000\000\000\000\035\306.\223\000\000\000\000\000\000\000\000\000\000\000\000\000\000\000\000\210y!\300\000\000\000\000\210y!@\000\000\000\000\000\000\000\000H\367c\221\000\000\000\000\000\000\000\000\000\000\000\000\000\000\000\000\000\000\000\000\000\000\000\000\000\000\000\000\000\000\000\000\000\000\000\000\000\000\000\000\000\000\000\000\000\000\000\000\000\000\000\000\000\000\000\000\000\000\000\000\000\000\000\000\000\000\000\000\000\000\000\000\000\000\000\000\000\000\000\000\000\000\000\000\000\000\000\000\000\000\000\000\000\000\000\000\000\000\000\000\000\000\000\000\000\000\000\000\000\000\000\000\000\000\000\000\000\000\000\000\000\000\000\000\000\000\000\000\000\000\000\000\000\000\000\000\000\000\000\000\000\000\000\000\000\000\000\000\000\000\000\000\000\000\000\000\000\000\000\000\000\000\000\000\000\000\000\000\000\000\000\000\000\000\000\000\000\000\000\000\000\000\000\000\000\000\000\000\000\000\000\000\000\000\000\000\000\000\000\000\000\000\000\000\000\000\000\000\000\000\000\000\000\000\000\000\000\000\000\000\000\000\000\000\000\000\000\000\000\000\000\000\000\000\000\000\000\000\000\000\000\000\000\000\000\000\000\000\000\000\000\000\000\000\000\000\000\000\000\000\000\000\000\000\000\000\000\000\000\000\000\000\000\000\000\000\000\000\000\000A\n,?\000\000\000\000\000\000\000\000\000\000\000\000\201  \277\231\352h\275\206:)<h\221\340\256\000\000\000\000\230\266<\251u\361p>\000\000\000\000\212\203\213\267\000\000\000\000a\335\\\276\241\240\240\274\205\204\2137\335\337\032\256\000\000\000\000\247%\202\250f\254\225\255\000\000\000\000c\310E\26617\005\263T\007\365\275\000\000\000\000\344\010\365=\000\000\000\000\000\000\000\000\000\000\000\000\270pe\300\000\000\000\000\227\206\0264&.-\264\311*o\300\000\000\000\000\275M\352@\000\000\000\000\000F\355\217\000\000\000\000\224\240I\300R2\347\275\222}\250\276r\004\024\264\260\355H\301<\332L\210\0309\202A\225\224\224\275\351\335`\275\030\333\232\210H\266\310\277\177U\010\300\224p`@@H\244\277\305\034u\301\277\332k\2427\262\215A\376\374\374\276\374\325\330\276?ed\261[>f\2777\013\202\300\335\361TA\202]\000\300\320\271G\301%\300\277\276#\005\350@\220\217\217\276\302\203\205\276\306\304D\276\342=3\277\236\036\023\300\210.\225@\250;\032\277\245`\245\301\004\030\205\300\207\330\305A\342\026\302\2758\306\330\275b`B\277#Hi\300\024K[\300\277E6A\034Y\206@\354z\220\301F=\"\3017\177\265A\264}{\277y\253\256\277\313\267(\277\322\257L\300\215\215\r\277\253R\001A\370p\375@i\372\275\301\323q\355\300+\003\317A\n\3013\300]\332L\300\201\202s\277\350\330\245\300\200\177\211A\301\206V\300\t\213\005@\337l+\301Q\315\300\300Z\360/A\3378\020\277<lc\300\310\035a\277R\2747\301\317\2225A\236\262y@=\360\246>a\364\251\300\316\316\320\300C\257NA+j\216\277\375]\"\300>\034\303\277\361wK\301u\320\240A\365QgA\230\372}\300\345oM\301\251\227\254\277\366h@@\200(\345\277\203\307m\300\260\345\227\277\363l\010\301\323K\211A9\034\217@\004C\321\277+j\202\301\374\346\232@\300\325\022Au\272#\277\330\243\340\300H\276\303\277\321\203\315\300\t\243\010Aws\324\300\2121\202\300\351\337\216\300\236\';A\230\025\017A\204~:\276@2\274\300U\306\302\277m6P\300\214\275\242?\"\0032\277\365\016\374\300n\233\014\301\341\377IA\272\231\032Ae\375\026\275uj\205\2777\342\356\277CE\t\300\033&\364@\034e\372\300\033\270E\300\266\313\006\301\220!3@J\306\202A@r%\275\263h\220\3003\n=\277\247G\017\300\305W\027?i\211\361?\346!\204\276tp\001\301|l\334\300\252\207\202A\373_F\275\305|\234\277\036`F\275\013\356\230\277\240\222\342\276y\203\004@s\"\006\275\237\332\032\301\233\262\013\301\201\276\225A\023\337\253\274#\305*\277\023\337\253\274\232\323\263\276\213\375Z\256Y2\244\277\017!\377\265\025:\022\301\267e\235\300&\024{A3\216\341\235\312c\021\272uJ\273\256\214\316\212\275\244\014\203\255\235\253*=\305\226\\\263\320\230\244\300MK^\300\343\"\013A\000\000\000\000\373\266X\275zF\245\222\367\260\016\233\037z\351\203\276\n\200@\000\000\000\000\363Z]\277\032\017D\277\021\200\357\277\000\000\000\000{\327\377\276\000\000\000\000\000\000\000\000\000\000\000\000\215\263%@\000\000\000\000y\346\t\215\233\354B\236 \002\021\300\000\000\000\000j\213\245\276\000\000\000\000\000\000\000\000\000\000\000\000\000\000\000\000\000\000\000\000\000\000\000\000\000\000\000\000\000\000\000\000\000\000\000\000\000\000\000\000\000\000\000\000\000\000\000\000\000\000\000\000\000\000\000\000\000\000\000\000\000\000\000\000\000\000\000\000\000\000\000\000\000\000\000\000\000\000\000\000\000\000\000\000\000\000\000\000\000\000\000\000\000\000\000\000\000\000\000\000\000\000\000\000\000\000\000\000\000\000\000\000\000\000\000\000\000\000\000\000\000\000\000\000\000\000\000\000\000\000\000\000\000\000\000\000\000\000\000\000\000\000\000\000\000\000\000\000\000\000\000\000\000\000\000\000\000\000\000\000\000\000\000\000\000\000\000\000\372y\2217K\210\252\236l\233\364\204\000\000\000\000\000\000\000\000\302\256\217\267\000\000\000\000\322\345g\264\000\000\000\000]\261\353?\215\214\2126\037\312\241\246\344\3138\237\3038\370\277\371\332\300\274\356\004\206>B\236\242\257\365\207\017\276$\2721\271\3254\024\277\000\000\000\000\353\311>\276\023\017\017\277\367\232\032\277\250\376\376?\216_\203\275\003\323\330\256\326\257\247\203\26646\251/\031\262\300\217\322\010\277\306\303-\277\032\205\'A``7\277\372\364}\300R\024\252?\177*1\2368\314\253\276l\330Q\214OX\027\301\372\361\265\262Z\206\215?\207M\367@o8%\3019b\006\300^)_AW\325\273\274\244\233_\277V\'h\241\207\177$\301u\263\246\277\221\215\237@S\264BAm\274R\301\\\022\323\277u\223UA\277\014<\277\217\303V\300\234\240 \274{\377\336\277\265\225c\300+\261\025A\325P\210A:\037\301\301\3674\233\276\331x;A\013\272\201\300t\373h\300\372$-\277\223}\275\300\335w\222\300\000\247\335A\007\234\026@\253\242\374\301u\211(?\367\020xA\375eY\300\030\277v?\013\010\333\277\177\352\232\300k\022\016\301\221\246JA\211\266DA\343\031\255\301\010\316\240@J\2459A\277z\321\300y{\032@R=\006\300X\362U?\331d\216\301\"\303\230A@;\334A@w\272\301\304\320\250\300K\\\217A\2103;\301\265e\203\300C5L\300p\326B?v?\204@\256\327%A[\243\004B\345V\032\302\237\335\351@\305Q\300@\0043\r\301\013\317\000\301\t\330\310\300\007\231pA\020/\302@|\267\317A\242z\271@E}B\302\212\255 \277t[\212A*\177\352\300\357A\255\277\305\253C\301\214vvA(,\017\301\001\3358Apw\356AA\031\341\301\262\261\207?\260\007=A\001D\002\301\304\013\005\301\030\311\200\301\221JE@\263\016%@E\321\035AL~ZA\304C\262\301\022\3107Ao\364aA\373\366\365\300\037\362F\301W-F\301]\024\rA\373V\nA#\224\001A\030x\212A\350\302\252\301j(\256\277\342j\036@\251\205\261\300\200\335\021\301)>\377\300\312a\t@$\2065\300\335\246\216@\231\332JA\207\t{\301\245C\007A_\264\353\277w\352\017\300\200\006R\274\203r\243\300\251&\345\300\2167*\301k\306\031\301\337?\224AR\r\210\301<8,AKc\267@:<\003\300+\356.Ak1\002?E\"\372\300\341\276\250\3004\317\246\300oW\217A\244\370\263\300\243T\274@\347\201!A_\024a\276\241\323\r\301\026\352b\277\262\'B?\302B \3010\362-\301\241u\313A\254\363\321\300\010\2362AV<\250>G\3600\300\356(\313\300\314s\217\277\0238\022\301\364a\352\300\210\252\304\277\035\260\024\301o0\005\301\020\336\200A\271\302YA\246}\004\300\354\251\006AhM\345\276\200?\312\300>\013\303\300\212\234\304\300\"\375\204\301W\016\323>\210$\371@\315\221WA\364\370x\276\222\t`A<\025}\2763,\337\276\302\201\337\300\200\322\016\301l\366\035\301\177Z#@\234\032\036\301\261p\247A\000\000\000\000\362\021NA\206\205\205\276\307\251I=\273j\353\300T\272m>\"\027W\300\343\321\351\277\234\036\001@\376\217\005A\000\000\000\000J\351\362?\375C\005\231\223\222\222>Z\2420\300R\001\017@\261O\202\2746\014V\267\234#\337@B\264\352\300\000\000\000\000\\\323\035?\000\000\000\000\333M\375\243\352\014T\300\000\000\000\000\000\000\000\000\000\000\000\000b \202?@\251\"@\000\000\000\000x\310z\276\000\000\000\000\000\000\000\000\000\000\000\000\000\000\000\000\000\000\000\000\000\000\000\000\000\000\000\000\000\000\000\000\000\000\000\000\000\000\000\000\000\000\000\000\000\000\000\000\000\000\000\000\000\000\000\000\000\000\000\000\000\000\000\000\000\000\000\000\000\000\000\000\000\000\000\000\000\000\000\000\000\000\000\000\000\000\000\000\000\000\000\000\000\000\000\000\000\000\000\000\000\000\000\000\000\000\000\000\000\000\000\000\000\000\000\000\000\000\000\000\000\000\000\000\000\000\000\000dcy8\242\240\240\274\204QK>\000\000\000\000\250\246&\276\026Zv\270\000\000\000\000\316\267\204\274\000\000\000\000\265\304\304\275\367ur7_\207\001\277\212\001\332?\217\216\016\276\273t\371\276\022\211q\276\363\361\274\211\271^t\276\370!B\271\273\312\036\277\"\"\242?\370\242Y\300k\271\207@\031\302\375?2Nz\300\214<\213?n\316\303\274\017_\037\277?bV\242\307%\032\301\325M\314@\3575D@\302\266\225A\356\214\004@2yz\301R\343\311@\035{\327\300\206\264\220\300\311\351\251\2472\263(\301D8\341@h~\275A\330\271AA\254\351\257\300e\246Z\301\364\324B@[\253\336\300\355c\023\301\005L\223\246\361/\310\277z\320\340?mg0A\311\207%A\032\032\034\300g.$@\375\023u\300\010q\340\300H\302\013\301\263\"\007\3003\360\026@\276\024\010A\201\330,A\240\247\260A\263o\201\301+\213\223\301\212(\270@p\000\032\301\337\331\354\276\340_\231\300\340\232NA\0306\375@DZ\241A\311\207QAB\270\222\301\002/O\301\224\037\254\300\016\376~\301\234T\006A\231\031\036\301\207>\200@\022\335\'A\231\357\035A\375\220\221AE\202p\301\353\323\216\300\221\n\n\300\"(\271\301\267tGA`\303#\301}I\223A\302\353\026\300\360\320\370@\031\017\303A\310\353;\301\366\007(A\024?\227\300m\322\304\301\320\374\027\300\2037t\301)\205\247\3004\nA\276\251\035tA\263\256\025A\267\260\315\300\316\222\216?.\365\201\300\272\366P\301# \232Ad\'\200\301A\204K@\263\031/A\000zX\274q\370\226A\'\246K@&b\223\301@\376\026@t\311.\301O\251\033\300U\315\327\300\342O\234\300n\223)A\035\301\200A2\013\"A<\270-\301\261\337#\300\242\2260\300\034\324\222\301S\356\202A\322W\\\301q\037\377@\327D$\300L-\033@@\023\013A\374\026L\301-\030\233A\356pg\277\214\364\201\301Qj\347@]\313S\301U\025*\301\330\224\247@6\226\365@V\231PA\313\217\004@2\244#\277B\366\000A>\007k\301\2231IA\376\221\265\301Y y@\262\263\225@F&\307@\332\261o\300\356\305\024?\352Q\234@aj\251@2d0\301P\373\002@\231MM\301\037g\311?\037\3353\301\2333\222@|\301\021A\350\273\361\300h\010\222A\321I\265\300\257\327\354\300\314F\257@\275\341\343\300c\373\265\276\246\017\010AL\250r\300\014\371\246\300\316Z\023A\330U\205A\272\221\027\300J\3518\300\227\t\243\300\027\234j\301X\"\311@pk\300<V\366\323?\216\022*\300\203]iA?\360t\301K\365\037?\337\254\237\300y\230\025A\035\032\031\301\240\224\207\277\0145\026\300\337\251\001\301\302\2254\301r\270\245A\307\204@A\003\260\244@\035\243\237?\350\177\305\276}V\177\301J\222\327\276\002\323\246\300\3305\242\3017\001\325\277o\013\254A\215\251\313\277\235\211!Am\373\r\300\217\327\345@{\314\354\3002k\002\301\232\177g\301\212B\234\301\372F\243\301\201e\257A\307\226\256A\nJ{A\017\254T\277\347(\254@\371t\270\277\245\237\032\301\374\025\302\301\037tV\301\250<\340\277\360\346\247A\0352\363A]`\211\301\203\203\203\276\374IrA.\273\257\274R\336\264\277\204\356e\301\336C\236?\371\320\203\276\004\260\034@\232\311\324@\001\275\256\300\000\000\000\000(\0053A\337+\256\274(\305\303\276S\014\024\300\303\375\374\275\000\000\000\000\034(\246\277_i\260?|<O>\000\000\000\000\344\"#@\222eJ\274\000\000\000\000\n\203\354\277\303\375\374\275\000\000\000\000\031\356\354\275\241\255\366\27676\026@\000\000\000\000\t\006c>\000\000\000\000\000\000\000\000\000\000\000\000\000\000\000\000\000\000\000\000\000\000\000\000\000\000\000\000\000\000\000\000\000\000\000\000\000\000\000\000\000\000\000\000\000\000\000\000\000\000\000\000\000\000\000\000\000\000\000\000\000\000\000\000\000\000\000\000\000\000\000\000\000\000\000\000\000\000\000\000\000\000\000\000\303D\211\230\215\214\n7li\"\236.\216\207=\021\302N\267k\231Y\276\037w7>\000\000\000\000\356\216\006\275\000\000\000\000_\013\216\277\323\363\252?\303\373\034\277\241\233\014A\346v\014?\356Z5\300\\\213W\300\006+3\277\353\220\321\277\\@\322\276\250\234\271\277\220\0208@a\014\363?\302\304\206A\016\375\334?^\241\212\301\222tp@z5p\3007\001h\3008\177r\277\224[X\301\220\010rA{\".@\\S\265A\227\025\\@~D}\301\362\355\000\301\177;\025A\310XZ\301TH\016\3000\'\007\276\253/QA\222\002L@\267\341\202A\001S\271\3007h\177\301\3340\202\300\337\006\026A#\032\025\301(3\327\300\376D\002\276\203Kh\300j\334\203\277\007\266\200A\222p\017\301\2348\370@\001T(\301,J\003Ak@\257?\215^\022\3010\017\214@b9p\301U\022\017A\022\217\306?\036gq\300#\324\216\300\364\360\264@\373(\232A\002\223\024\301\312K\350\300\304\030\013@\327T\233\301\202\021\341\300\314\324\204@\272a\326?\316\200\340@IC\022@\033\276\200AI\232\361@\364\344g\301/!\232A\000Y\371\300\0045H@\tb4@\352\301\247\300\274\374\002A\351o\033Ab\223K\300d\270K\3015\252b\301\351\214\357@&\034\210\301\341Y3A\254\317!>P\363=\276AQI=\237\034\302\301\275N\332\300\346\260oA\331nfA\2132\215\300R\330P\301.\177\204@]q\013\300\344\013cAV\203\036\301\031\207\023\301\336\314\351@\317v\021A5_\201@\311D,A\256\275\336\300\304\032s@s\236\177@\217\243~\3014\252\225\300\332\203:\301\340\306\007A\226\211\244@>\271\340@;N\316@/\036\372\300\363Y7A\325)\337?\312\365a?U\222\035\301\032\350\024AC\327\305\300{\372 A\224m\200\301_\266\262\277\003\237\256@TR\336@w\023\205@M\006\016Ah\353U\300|\326y\301\027_m\301_\277e@|\035\305@\355mP@\"\030\002\301L\014\030A\352\350PA1 \027?\304\026\266?\337\363\304\300\3112\277=;\301\316@!\311\240\301m-GA\206\210\017\301R>\351>\032\272\317\300?\263\334\277\222\346#A\202(\273\276eo\342\300\213QQA\257\2429\301o)WA|\312\227\300d7\245@\235\337\325\300\234];A6b\245\277\357m\007A\231\314\021\301k\005a\301\251\3658\300\233\225\002\300\361@\275\300\245\340\205\300S\222\030Aof\001A\007v\034?\005\220AA>\242\252\301nJ\273@_\353-\300\352T3\301\371\275\024@\2240\326@\314\342\343@S\325\316?\005\007\177A\277\242\227\277Em\354\301y\251BA\345\201z\300\266\303y\277\007/\037A\241G\036A\330m2\300\320\263o\300\31160@\334C\265@\2064[\301\206|\206?\244\234\001\301\213S\353@\316\375/A\246\210\231@6\t\331@\203=\320@\315\020hA)Ig\301n\366\025\301\324\227\225\3006\212\263\301:tR\301\246\233(\300o\3313\300\247QG\3014\\\245AU3\215ALy\340A\334\233\304\300qQb\301>\217p\301\021\306C\301T|~\300\024\032\210\301&\200\217\300\321\366\342\277\034\255\306A!\004nA\017\273\241\277\322\010\272@\004\346\230\300\240\371\306\300\207\026\224\301G\304\023\300\200\227\361\277PcL\300\243\240\177A\001\357\256?\016\301]\277\030\221\216A\272w\013\300\234{\000\300&\334\355\300k\022\036\2777\\!\276\221\356d\300\236\221\270@\006\"\324@\334\225\353\276\313}\007@\003\254\205\276U\315\217\277z\221.\300M\273:\276\000\000\000\000\223\337\246\275(WU?\300\275]@\354nP\272\272\272:\276\000\000\000\000\000\000\000\000\000\000\000\000\000\000\000\000\000\000\000\000\000\000\000\000\000\000\000\000\000\000\000\000\000\000\000\000\000\000\000\000\000\000\000\000\000\000\000\000\000\000\000\000\350\356\210\242$\250(=\000\000\000\000\356H\254\206\000\000\000\000\000\000\000\000K\335\373\265-\246(\275\330\013\274\276\207V \300\300Mi\277\214\267\"\276@W4\256V\266d?\021v\002<\323\346j@nc\004\277v\343\344\275R\301p\277\360e\036@ j\277\277}\003\005A\263\346b\300\337\324:\3011\354\025\300\234o\200A#c\247\300&=\316\277}\342c\300\331\360j@;1$AX\217?@d\341*@\034h#\301\370\362\210@\310\230\343@\014\n(\301}\311\326\300\336w^\300\235\275a@<4&@n\335\021@\377VAA8(\276\277\313(\212\300\204\360\203A\321\334\001\301\270\253\234\301\016?[@5K\352?\205\312\177@^\r\346@\035/\033\300\230B\325\277\371Jq\301\216k\302A\206\277\010\301\004kP\301\\X\202@,E\014\301\r\236\332@\001i\320\277\023\263\027@\214\307.\300O_\235@\371R}A\252\300\330\300\376\005b\301\224\222A\300\\W\016\301`\331\262\277\022\201\021A\324ca\300\270\004\001\301\200\244z\277B\322\251A\214\277\215\300\250x\032\274\000\373\305\301\313\327\227\301c\307UAdm\030A\350\270hA\360m\360\300\032\312\364\300\365\377\307@K,\237?\204n_Ag\273\260\3006x\007\300\217B\220A\303\322\241A\277D\025\301\357JD\276\315\363h\301\217cWA!\230J\301\022\341\352\300\033\327(\277N\227\254@\036\313&\300#}\004Al\266\225\301\202\345\'\301Oi\001\301\362\034\273Aj4\306\300\001\023\033A\232\202\223\3017\375\266\300{t\304@O@9\300\021\016\201\300Q\\H@\n\t\321\300\376\273kAa}FA\230\245\232?o\037rA\322\213\006\301\026r[\300\032\253>AY}<\301\322Y\207\300\312Lo\301\002(e@>\3128\300\272\375pA$\242nA\265n\327\300\3205Y\300\"b\"\300\260\010\236\301YO\364@\247,N\301\305z\315?\341\323=@\221v\221A\355\317\212\3005;*\301\210\2553Av\006d\300^{\240\301\020\376W\300-\263[\300\300\375\010A\343\021uA\267\312$A~%b@\220\316\237\300\306~!A=/2?1\325\242\301\002\202q\277\246\223\356\300\262\216\353?\336\237`\277k\260\223A\314/\373>x\331\246\301\017\177w\300Ta\332\300\254\031\312\3007\232>@\010z\016\300<\212,Ao\301\030A\203Q\202AfZqA>^c\277\"gF@\177\002\205A=x\301\301\315\235\337\277M\315\300\301k0\326@\360L\373\300\021%\212AK\177\n\301\273%\321\300\271\206\014\301\033\030T\301\306,v>\250\217\222A\304\353\340\300nu\204\300?c\322A\204\214b@\211\204\341@E\264\347\300\247\243\t\301\n~\020A\035H\207\301_M\341@\322\357\020\300\2066T\277\332\226\277@@\266\327@XtzA\"i\013\300\023\232\276\300\336\031\340@/\260\352\300\357\021.\301liv\2761L\213@(\217\340>\322\n\\\277\221\356\323A\214\213\t\300\216\022\031\301\247 H@A:\357\277g\034\023A\335@\035\300@E\333\300\020\342X\300\243yH\301\332\005\274\277q\255\316@C\274\247\3011\007\250\300C\202\251A\256i,?\005t^AK\337\243\301@(\222A\335*E\301K\030\240\301^D\240@ml\204\301\014\350]@d\016\353?\363\020\005Be\270MA\357w\237\300/\333;\300\007>?\301g\206t\301\257\255\037\301\333\010\017\300\030m\235\300\332\262$?{5\225AT\201\200?\036i\013\300\033\203\220A\332\025q\300\366t\377\300\336\216w\300H\316v\277NA)\277|\303\364@>\362\306@\234$\240\277(\251\035\277\206\231I@\214\027\326\277h($\300\000\000\000\000\332\273\200\213\3569\333\241\250\357\353\275\246\226\205@\302\352\352\276\323[Z\271\206\023\n\277\377\375\375\276\000\000\000\000\000\000\000\000\000\000\000\000\000\000\000\000\000\000\000\000\000\000\000\000\000\000\000\000\000\000\000\000\000\000\000\000\000\000\000\000\000\000\000\000*\027\005\277\227\016\260\244\016\334t?w\307\233\275\357&\346\235\000\000\000\000\251\371i?\225\211\204\276i\000\202\277\312\310H\275\210,\321\300\303\032\217@\272\342\203\300\275\310H\275M \212>\347\337\324\250\014Q\352@\361\313\002\277\223\017L\277\310\3678\277\3236\211\2776\242\027@X\3354?\207\215\250\277P\253\031\301\220\260u\300)\252\275A\265\023\255\300\226B\232\300\0243\325\300\306\001M@\311\252\273A\010F ANC\376@x\027\356\301EE\205@\265i\327@F\350c\300\226\222x\301\352\363Q\300G\217\006\301\016\303\243@f\002\331A\266\r\272A\003c6\301\233\210\257\275\0378\257\300\276S\276? \261\342\301\013\352\007A\207,\026\301G\334\211A&\201&A\004\024\270@\227\330u\300\257\003\256\301\336%-An\362;\301\200n\277\300C\366\n@\272\032\327\300Sd\026\301\330\306\206=T\326\"A\264\236\021A<\271\023A\020\004\001Aa\031#\301U\362G\301\363\020Z\301&\220\263\301AykAk\310\366@\222\260\240\300PLHA\034\266\262\300\010\307R\300\243\215RA\016\370\356?b,\263@,Q|\277l=\340\300\032}\321@\266\210\310@9\014x=P\247\310\300\265\247\023A\240\001\021\301\007\377\213\300)\355\360\277\305\330\035A3\364\001\301\246\210\232\300\371U\177\301W\013\035AZn\347\300\232\220\207A\310^\026A\352\000\000\301\300\364\321@9\'\020\301\370Z\225@\301\242\266\300\230|\333@p\263\266\275\375\253N@\016 \325@\013R\r\301g\322\212\300\247\033\001\301\264\007\024A>\215\343\300\024\307?A\001\270\225\301X\341\346@\014\255(?`L]@\2404$\301\302i9A0a\360@P\006\216\301\3660\216A$%\375\300\316\345\037\301U\267\027\301xl}\301\036\013]A\326\262\344\277\314P\275A\020\274\332?\364\264\225\300\337\310\nA\250\225\236A\016\262[\301\337\032WA\020\234S@\251z_\301\227\243\305\301\215\001\"A;\222\"\301\210\032\204\301\253\334y\300\235\350o?\250,\223\300_\346U\301\317Q\253\276\226\213PA\343?pA\362%\237A,\345\330\300\3207\217=\021\234\007A\210\327\253\275\333\306\034\301\036\253\333@gV}\301pS\307@\320p\234\300/\346{A\301 \213A\243/\006\301f\021\216\301\261&\307@\013\333\353@\307\200\241@\251\227\222\301\251n\036A\3210\326\300\307P\247@\234\027\206A\34630\301d\207q@\211\332\213\301\362\035.\301C\324\242@\216e&\301\262wmA\2359\003A\364\000\216?\032j\334@\237<\204>\221\017\353\300\020Q\373@s\264\336@\2732\204\277M\003\252\277\332F!\300\\p\021\301T\220$\277\031\357-\300\226\014\026@\005\001\032\301\263\010\254@\245WM\300\374\355w\300\247\225\202\301\021\320cAx\341\032=N\007\\A\365&\003\301\304:n\300\033\311\n@\374\310}\301\243\002\251@)E\304@+E\035\301\2018\'A\330\354\206A\353\220R\300\2461\271\300\322\374C\301\310Q\222A\332\037\234\301h8\nA\005\314\177A \373k\301\232\205\270\276\220\024NA\212\236H\300\224\327\030A%\346\205\300\373\241\013\302<-\370\300\305\321\221A/\025\342@\325f\227\300\273g7\277\307\277\240A^&)\300\234\332\353\2771\021\265\301\354\302\317\301!\032\321\300\tW%A\263\250\254Au \227A\370\227\375\275}\214yAe\312\024\301\261|\222\301\2447t\301zM\233\300?#\213\300\t\345\362?\207\306+B\334\277\201\300\n\316\366\277\021\307\246@w\267\245\277>\346!\301j\353\r\277=\254O\277Z\031\254\276\2747\025A~\341\246@)\277\036\300\232\323\202\276\t[\223?\347g\221\277\343j\316\276j<W\243\354\344\317\272\257\322?\242\3143(\276\035U\212?\274A\270\277\000\000\000\000\341\331\216?\302\300@\276no\357?\000\000\000\000\224\010\030\237\000\000\000\000\023\344\260\256\000\000\000\000\000\000\000\0007L\271\277\000\000\000\000\351\214\330\276\275\360G\212\322\310\331\276\374M\376\242\324\362\006\300.\267Y\277\224\372\037\207\000\000\000\000\315\253\246@\305\331X\276\216`\316\277\016\247\374=\017>\230\300X\345\365?\t+\022\300\367_Q@m\035\217\276\326\324\324\275O\363\321@\370e\213\277\n:W\3008\022\251?\032 w\275\331=\214\277\024rw??k`@D\241.\301\3172B\300=\331\301AI\267\026?G%x\301r\014\347\300\236q\330\275\314SlA1]\rA\262\202\355@D\321\037\302J\220\305@rC\214A\365\"\341@\305\326g\301\034\233\371\300\344\t\263\300\324>\250\300\003\n\234@\220\256\261A.\347W\301=\325C\300N.\007A\360\030\331@\030\235\343\300>\334\365\277\341\252\035\301\013\204\361\300\226\3128\300z\324\242@w8H=,\3354\301\351\236\017A\351V\177Ae@\\@7!K\300\337\340\234@\225\031\'?9j\010\300Yn\275@\rr_\301{\210\003\301/\235\351AIf)A0.\276\301\026\236\006@\233\362k\3019v\017@\344\313\\=\363e\332\3008\026m@\314\322[\301_\261FA\034\276\225\300P\277\233A\364\275\217A\036|\217\301\321\355\004\301rG\241\300\303\027\324@Y`7@\214D\242>B\252d@A y@\256j}\300\213\005\033\301\200&\265\300\325@RA4\322W@:\000E\301\376\230T?\211\3210\300\366gI?e\233vAf\215G\300T\214\317\300\355)`\301\277\244.?\342\217\232@\252\275\331@\310&N@\326o\236\300lR\223A\344\r1\300\204\247\267\300v0-A\316\272\202@k\310:\276\214|\243@\207XI\301\024\265l\277\246\272\271\300\323\376\tA\326\372\035A\243,\230\301\010\022\220\300A\370\t>]z\035\300\315\\5A\305\317u\3012\352\003\277\330?_\300\274\204\375\300\325\345\tA\237\235bA\266\365~A\254\003\335\2754\206\262=\334\010HA\223\364\230\301\351\363\215\300/i\246\301\321\242FA\346C|\301\242V\232A1\223+Ap\256\354\276t\241\376\277\\J\225@\362\035\357\277\237\360\270\300/\326\235\301Y\315FA\271\\\001\301?\231!A<\267\364A\300U\202\301??\376\300\000tr\300k\375\235\301\223W\244@E\3674\301\310\257\331@\352\004\336@\026\346\031A\3712 A\301\332\032A(\026\346@\344\007\215\277*\371\020\301\332\213\030\300st\343?\204`\370\2760\353\022\301\3047\316\300\356]\370>\273F>\301#\003_\301\311{\307A@\333\323@ \257t\300\002]\324\301\207\334\235A$\256\251?\316dF@r\321\362\300Z\277\261?\302\273}A\231t\350?F;,\301\360\264v@%\005{\301\317\031\314\300\303\024\204A\270\322}?\203\342\235A/\206\025\301*\345e@\357L\226@\320\0230\301\320F`A)LB\301\234\245\346@\027\376\241\300\026\031;\301\272\233.A\371BL\301\244\021!\301\351Y\007@\232\241\210@\273\305\031\300%\030\217\300\376\300\325\300B\352\345?.Y\212A-c,A\330\234\t\301n.\254\300\372\231\335As?\216\3014\222\241\300\252&\263\301\250\324\203A\252\0234A\376\024\340\300[\262}A\346e\245\301\216\022\000A\322\354\372\301\255\241\034A\342\211\347AB\234\326\301)@ Ac\032:A\254\356\253\300\351\333\030A\350\317\364\3018f\345\301\217\323\343\301\370\247\311@\025\005SB\325**\301\024g\370\300(\266\010B\341QW@\246\230\317\301\202\263V\301\301\365\027\301\327\202\257\300>\013sA\031\272-B0\0304\301\343\350\004\301\341\334xA\347{\206\276\340\030.\301\002\371\313\276\343<\221\277\240z\006\277\35060\300\260K\230A<\037\032\301>\016\231\273\241\274\362@Rm\245\277\005\323\210\276X=\037\243\00179\273\274I\021\212\250\247\247\276\233n\352\276(\334\310\277W%\204\257\213\371\'@\214\312K\261\000\000\000\000\000\000\000\000\000\000\000\000\276\r\216\206\000\000\000\000\000\000\000\000\000\000\000\000\000\000\000\000\000\000\000\000\245@\001\221\000\000\000\000\000\000\000\000\274[\016\251\304\031\033\3006\214\014\277\316\314L\276\262\227\007\207\255\376\250@IVR\250\274\363\006\3008\374@?B\324E\300\326@C\300H\244\205@M\025>@\032\274\231\276\225\371.\277\330\215\nA\224:}\300\\G\257\300\022\253\235@\321\363\360\276x\320m@\006\223\016A\337\307\030\301T,i\301^T\203\300\272)\273A\300-\310\276\236\310=\301\310\251&\300\240 \306\300\242Y A\354R\000B\341\006\202\301\020\203\343\301\024\350bA\321P\200A\267\362l@\254N\264\301\007\033\241\300Nl\217\301\334\000\277A\211\250\rA\270\350I?@\311\\\301.\367D\301\360\037\020A\233Z\215@#B\010@\336;\262\300\207:\334\3008K\261\301\003\004\006Act\375\277\372ed\300\323i\014\30148_A\322\373\344@\315\244\233A\363k2\301\333\\4A\006\214\216\300\032\332\225@fm\204\300\245\327\215\277GYt?\272\t_@\0347\300>\200\n\250=!\005\005\301\3240f@J!\312\300C\374\350@\305\323\363\276\'\2178@\245\022:\301\014\014j@\327\312\007Aa\263T?\203)\312@\001\261[\301\212*\020A\245\016\006AF\010\311@\2245\210\301mY3\301\003m\350@x[\353@\355\002)\300V\265\177A\247W\346\300Ff*A\231\353\232\300\327\254\222\301p9\350@\035(k\301\216\307_\300\354\376\265@\327\335\017A\007\320\014?*\007\321\300\006\313|\301\353\236\203\301\252\276_@\313wJA\257?\242?n\266T@\334\251BA\262q\252@2\310\217\277Vy\022\301\372\032\246\300n\206\331\300\362\314\374\3002\355\023A\344\204\034\301\302\353\271A\320\"\010\300\222r\031A\334\354\267A\030\341\240\276V\262%\300:\300]\300\224J\304?\351U\341\300\rM\273\301\275{|@\017H#@o\251\271@\026\253\032\2775\335\005@4\260\247\3009^\010AU\335\250\301@S)\301\231\236\331?\363\334\345A.\022\t\301\376\277\241@d\357\234\301\017\271\233A&\237?A\333\322\230A\344\273j\301mw8\301xP\030\301\271\210\225A\224J\344\301D/jA\352v\256@\350LTA\233\266TA{\355|A\010\202\313@\345\360\247\301v\200\253\3015\330\271@$\240\025\301WV\003\301*\235\330@=(`\277\304\346\003\301\312\231F@XcG\300\322\340\\\300n\333\366\3013!\317Ak~q@\3433\340@\0338\'A\3773}\3006\347\253\277\275E\233\300\330\366\342@\2727\004@jI\256\301}B\014A\312\217\305\277\031[\243@Q\222\245A\2177\324\300\327\326\213\277\023\366rA\256\211\272\300\204t\'\3017)\241\301_\375\024A\024\306`\300j\356\036@\254<OA\204\231(\301\341\275}\300\230\357_A\316\343\270@\250\232\371\277\321ih\301*E\261\300\370.B@\330\356A?\030R\016\301\374^\333\300\353\257?\301\300\276\357>V\357+>\360\303eAx0\373@Y%/A\265\244\317@&\320H\301 \327\273\301]a\014\301\375\030\251\277HT\247A0\030^\300\305\306\227A\271\003\256\301\342\335\346@\263[\324@H\332\241@\273`HAV\315\235\301_\272\355?&\002\205\301.\337\214A\244\227\207A\267\242X\301\007\214\000AmQ!A\234P\211\301\005\010\375AY\265T\301\342\324\340\3019i\370\301\243\210\355\300\322\010DB8bY\301l\001c?\245j\221A\246\300\307\300\324Y\211\301\t&\030\301r\363\231\300\'Z8\300\366\233\375\300H4FB\354\372\255\301V\303\233?\3004\251A\003\013\374\300\245B\377\300\203\377\310\277\307\264\016?\362:\311\277\265\212S\300\351\270\350@3\345D\301\330q{@\250g\210A\025\014\005\300~\335\242\250\236D:\236\242\177\307\202\000\000\000\000b_\365\276bu!>g\206\210\274\"\037\337@\371\365\275\300\264\2622\277\000\000\000\000\000\000\000\000\000\000\000\000p\254*\207\000\000\000\000\000\000\000\000\000\000\000\000\000\000\000\000\000\000\000\000\347#=\221\000\000\000\000\000\000\000\000\005@\261\251\350\003\300\277\330\016\017\277\001\377\376\276w\323\250\207\303j\223@p\211\002\251\371/\003\3003]\213@\247\214\307\277G\033/\300\364o\272\276$o\375\277\\\027L\277\0003a\300D\357\230A\231f\023\300\203k#\301\032Xc@{\266\224\300X\347\025An\227vAJY\212\300\226\006a\301\231\355\234\300V\205`AV\327\337\300R\322\355\300}\013\334\277\352G\n\301\277i2\301\276+jAt\236\352\300\022\374\254\300\355\345\210?\177u\\A\224,\217A\216\026R\301\226\033\017A0\350\204\301\030t\276A\204\200]\300\255\303\003\3019\236\315?\223]%\301\374\277\300@Dw\350\300\026\354\260@\207\306.\300\3660\272\301\345?\312A\241\331\227@P\355I\301\244V\232\301\206\022X\300\360\265FAq\324\206@\355%jA\200i\301\300ET\317\300N\271)\300\264\000\006@<\026\025\301\025\020jA\247\221\246?\005\000n@\235\211\364?\223\374V?\037\244E\300\307o\027>\226\236\335?P\007\023\301\177\306\200\300~\261gAr\215\276@\223\246\376\300\026h\250@\362ZT\3006\2541A\323\230\'\301\231cI\301\367\035\352\301\304YMA\270W\220A\020\023X\301H\334;A,\353\027A\204;\'@E\367\033\301\352)\222@Ju\313?\\\276\216\301\215\025\034\301<\3232A\270\361\036\300\213]\323?0ddA;?\322@\326\226\305@\312\0223A\250J\367@\213\355~\301\212\236\245\300_9\026A\365\005\024\301]n[\301pi\307@K\000W@\245G\314\300\036;\374\300Q\255\214@\2401\250\301\245\202\032A\205:lA<\266\223\300\225\335!\301~\230\201A\0021\240@\006\032.A\242\220YAp15\276\3669\n@F\304T\301\320\255[>\300:q\300\315\372,A\211rN\300-\217\211\301\323{0AU\212\343@\030\023\306@\360\264\337@\232\303\331\301d8\005@\212\3050\3014\024OAv\300\016\301)_X?i@m\300\214p\301A\265w\027\301H\341D@\343aq@\263\022\350\300ved\301\200f\245A\303\206_\301\366\005B\300ucKA%0 @\321\216\213?\366$\366@\2405y\301\366{\356\300\361\264M\301\344\277\354AH\200\243\3012\332.@\333\224\214A\010\223\306@\277r\200A\tk%AS\t\230\300?\327\214\301\377\345)\301<\206\320\277\223\231\"\301I\000\255\300\321\270VA\021\361\346\300\216\314Z@(\237\371@\322J\n\301a\246`\301Y\251)\301\251\2522@2\345cA\322\275\225\277\\\311\001\301p\035\376\277w\r2\301\275\337\327@\213U\034A\250\365\226\301\250\261\222\301\310y\201A\315\260\302Alw\262?7\340\003A\330\246\234\301\314H\230\300U\225SA)&\004\301\305Yq\301\256\345~\300K\\\251A\270\267\021A\370`\235\275\207\202\003A\331O\224\300,g\237\300\321i\262\300pN\375?\001\376\247>5\252$\301\313\376 A\200\237\340@9\001\010\300\330%BA\2578X\301(\223\014\301\201\024HA\340\200\254@\211\004\316\300\341\204\233\301\315\033\230@\\d\016A\343\325\217@q\277VA/\245D\301\214\347\372\300\374\263\225@\325\223\241\301\n\362\245A\372\336]@\346\253\014\301\034#pA\336+\003\301\262<\326A\314\321\204\301>D\372\301\350r\274\301\013I\344\300\267\203\241Bb\264T\277o\036e\300{\312\304\300R4\223\301\t\276\200\301\353\275\300\300\301\202\025\300\005\024\332\277e\243\024\301\007\264zB\267t\265\301\033Y\204@./$\301\342\352\311?\222\352\036\301p\215$\3007k\214@\236\036\207\277\240?\003\301|[\241A\233V \301`\026A@ct\005A-=\204\300\354\323\330\232\343\236\030>d\361\022\213\237\221\232\256 T\306\275\210\276\224\275\313\023J\277\274\241\341?\213\242#?\315\313\313\277\000\000\000\000\000\000\000\000\000\000\000\000\020\357J\206\000\000\000\000\000\000\000\000\000\000\000\000\000\000\000\000\000\000\000\000*L\014\220\026\025\225?\000\000\000\000\225\215\260\251\272\240\034\277\004\333\332\277=\376\375\276O)\250\207\027\250c@<\r\002\251U\272\363\277\331\330\330\276\241\240 <\365\263\207\277NO\n?\250N\032\301y\375\374\276\'\177\247\207\350\332\353A\211B\240\277\\C\211\301\031\344^@\20586\300V\314q\300\255\255\277A\022\222c?\317\r\243\301\256(J\300\023\013ZA\375EV\277AM/\301\312X}\301\267\233n\300.\250E\301\371V\223A}\231\331\300\033_c\300x\347}@]3\204A\027p\365@\256\363\211\300s\032\031\301\036\215\351\300H\000\266@\367K\351\300\346\222T@?\343\006\300\000\370\235@\305/v\276\302N,A\217G\345?\366\254\376\276\205Y\324\301\"]3A\314\270\337\300\010\034tAh\277\032A\036\262\003\301\350UP?F\272\005\300\225\317\354@\273\322\355?\005\375\231\301YG\317\277\337^\302\301\216~\366?\025\240\232\276\037\325\032A\352;\342@\203\301\246AP\354\202@Nc\237@\336%\035\301\336\r\275\301\267+\027\301\323\260O@\325\217\327@\353\362\032\300\016\221[\301s\035\203A\t\215\335A2Bj\301\257m\203\301\247L`\301\r\356\207\301z\202\250A\3050\372\277dA#A\342q\332@\347\223\257A\301\225\177@\201*3\276\2621\013\301Qv\031\302\007\224\253\30190\306Ax\272L\300S\214)\300\022\203\215A\265%MA\365\002\232A\334d0\277c\365\356\276\025\013\371\301\277\235\341\300\221\000\214\277\266\024y@\"L\013\301(\211DA,\023yA\311&\213AX\243\324\301\255\000\022\301$]\r\302\'\371\264\300$\032\360A\3139\335@\246~mA -\"\300\203\217\375@\177V\234A\027J|\300^-\230A(\302\032\302\307\341cA\250\357&\302\211\200\272A\265\345\253@I\361\311@\000{\306@\214s\036A\021&E\301\257h\225A\321*\237\301\363$\354?\312\217\360\301 \350\t@W\036\373\300\303\352\212A1Q\330A\316\210C@Bz\301\301\233u\371A\236Qy\301\376\370 A:\214\264A\354\340_\301\302\021\273\301\374\321\211@\244\027\013@u?\333@\022|\270\301\361+\345@|\200\003\277Q\233 \301\263\264kA\326\365\007\301_f\323@\335G_A{1\000\301CZ\365@b\271\r@\360g\351\300&u\213\301\355X\210A\304]|@\206\334%\300\245\026\212\301\303Y\014A\317yA\301\266\225\305A\177\226\246\3010(\267@A\033l\277\\\224`@$\271\307@\357\275u?\347/g\301\241\035UA\302\342\311\300r\000LA\342\021\242@\240\373\023\301\013+KA\344\367#\300\270\234|>m\033e\301\034kz@lOF?\340\006-@m\317:?\356Z\037@\345\321\361\300@\342\306\300\263\'=A\200\227,\301\2530\275\301>\354?\300\254\342/A1\215B\277,K\325A\357\242\274A\'O\032\301t\355\263@LJB\300\234X~\3013\202k\301Z#\000@%h\021@\2513\213\300(\267bA\331o\005A\233\177\014\3010z\227\300\300\362\033A\300\330\n\301\026\355\364\301\303CO\301M\323\241A\365\335oA>LGA\207A\225@_\260\313\300\0001\n=\202\241\004\301UV\236\301\247\353\210A\271\266dA\345\261&\301w\242\202A\331J\362\300\276O\203A\'\347^\301v\265\010\301\034/\222\301*\231\324\301\273\277NBH\024\306@\000Z\017\301\265\273|A\"\335\\\301\262\016Z\301\320T\340\300 \343\315?r\330P@OCO\301\3327\212B\250\310\312\301~\301\274\300\322\250\r\300\251\261\335\300w\262\367\300\217&\036\300\371\3266@v\331\242\276\321P\222\300\0238\226Ank\231\301\323\010\262\276\306vxA\373M\"\300\271n\005\233\241%\373>2$\t\300\002o\222\255\356r\031\273\342\340\340>\333\351\241?[\347\346>\243,\346\276\270\241P\275\000\000\000\000\000\000\000\000\000\000\000\000\000\000\000\000\000\000\000\000\000\000\000\000\000\000\000\000\000\000\000\000\000\000\000\000\247e6\254\227\226\2264\000\000\000\000\371x\352\247T\204\200\275\356\361\367\277\374\253(\2754T\337\205^\\\036@\247O.\247\256\344\335\276\201\200\000\274\036\307\201\2765\017\360\275e[\336\276\001E2\301\302\315L\276\013Xy\273,\004\301A\206h\177\277\246\210/\301\322n\310?\317\356\300\274\255,e\301&\017\261@\024%\253\300zn\375\300t*(\300\234q\321A|\242*A\3139[\301Z\342\265\300\211\350Y@\t\240M\301\3364\221\277\253\214\210\301\033\335\343?\207\016U@\007+\254A6g%\300\252\233\024A\327\031\275@\274\013!\300\365\342\276\301\351\225\025\301\213\2755\277\nR\204\300rM\232\300B\315TA\366Z\205A\202:\030A\202j\212ANO\263\300\345h!\302\314\346l\301\306\346\005A\005\251\232A\352\"v\277\222\346\003\300\214\337\232\300\256\367\274ABj\315\277\301-8\301\214\333R\302\035Q\033\301\257\025:A\224ro@\226\310BAW\351\324A~\310 A\000C5A\212\227\r\300\346\334\002\301bN\310\301:c\276\301\232\026\251A/:<@\262>\017AC\241\320Ad\007\312\300$\334\315@K\323\t@^\2035\300\275a\222\301\200=!\300\360#j\277>_\004\301z\236?AF\314`\3006\327\330?b=\244A\\/X\300\300\2634\301\r\331\213\301\200VlAq]\202A]\017IA\275QM\300*L\t\301V\312\347\300\325\256\361@\210\361n@\261Nh\301\2126\007\302N\275*\301\222\305mA\372\365Y@\363\031`A8oEA8C\220=\000=)A;F\306@`\347\304\277\303\263\221\301\320t\212@\213C\'B\337\356F@\350\326\023\277\204j\003\302\005\274\035A\036\370A\301\215}\244@\240\333\010>k\260\311\300\361\2732\301i\224wA\311\222\025Al]\354@\347\275/\302\277\013\226A\316x\245@\314\304\216\301\003p\325A\272\360\200\301\360\010\257A\343\367\217\301\036K\001\301\016h\030\301\322\016\252@\376\360\373??\226[A\240\255\315\301f}\000A%\337q\301Bgq@\025\025\222?Q\277\324@Z1 \301j\024\241A\217\017\347\300\232\250\222A\002m<\301\035\305$A-\350\r\301\206\001\257@\272\n\003A\354\027q\301T\037\017\300\2208&A\216\177\275\2770\270\242@\321t\254@VN\254@/X\353\277\301z5\301\334%e\300\215n\264\301\341n\022\300\206\023\206AI\252\027A\032\352\222@\3715\004\301)\030\270\300\374\354K\301\331\031\006A\242\236y\300h\353\"\301\341+\021\300\342\355xA\201\231/?\344\345\223AFj\247@\330\302\020\301\200\311\022A\000f\265\3003?\340@\353\334\224\301\020\317\217\301\024\315\347\277\214\252\256Ax\324\035A|0l@\232\351\274\300!\206\267@\376\331\222@\033\313L@\247\230l\301\365V\006\301\230\247\373\300\245\340\"AZ\350\030A \365\314?\003\326\271\277\2159N\300\224\004\323\301\323\310\272A\241\251\030\302\320Aw@\273\362\021\300N\336\257A\243\234\245A*\374/A\223\032}\276\220+6\277\237\233\262\301n\272\023A\212Fo\302\371q\205A\"n$A~\3368AJ\340\302A\022\373\346@\370\205C@R-\207\301%\311}\301\321x\277\277\213\221{\302l\224\000B\201Qk\301\366M\rB\216p\010B\303\025\025B\253\016\000\300\374\316uA\006Z\365\300q9\017@\311\026\232\302\216\336~A\323 6\301)\207AB\350\263\250\301\250\271Y\300;\201Y?\362j\204A\213\365T@\306\213\352\277\200\035\270@,\221B\301\376\216!@\035\030b?R\356G\301I\215\360\300J\007\201\277T0\200A\000\000\000\000\231xh\300}\201\247A2\373\275\301\004\247\240@|\"\346\277\223\355\210\300}[\017\232\000\033\007?\314\350\356>\354)5\211\343L\227\277\204\356\033\277\206\275\322>\243k\027@N\300\344\277FOF\276\000\000\000\000\000\000\000\000\000\000\000\000\000\000\000\000\000\000\000\000\000\000\000\000\000\000\000\000\000\000\000\000\000\000\000\000\000\000\000\000=<\2245\000\000\000\000\255|\325\211\"\335\230\233\247\244\262\277\213g\301\264\000\000\000\000rm\273?AU6\242\"\215\214\275\000\000\000\000\035T\242\275h\355\320\275\341\224\220\275\n8\000\301\026\2539\265Q\032\262\272\r\361\216Ai\2229\276\217\266\026\301\322\222\340?\266>\020@(\'\201\301\352\274n@\262(\371\300p\262\360>\006\235\034\300Y-\303A\245o\344@P\337U\3015\026\034A,1\001AH\2156\302\0239\222\301\355:\317\300d\346#A\243\3269@\267V\305@\320\223\023\301c\342)B\247\214|\300\213\367\326\277\001\312(\302\310\223\376\300\237U(@K\313\215A\035\367\345@\252\332}@\236X\003A\202~\200A^KmA\301\260\327\300\274\216T\302\334\300@\300\266\010\230A;\251#\301$\307\301A\331h\237A\241\267\026\300\332\206 \300\225\247>A\234\024$\301\274\302\032\302\352\314\302\300A\252\276@\2469\200A\344q\003@\274\363\235@\311[\372\277\n\306\200A\021\306b@\017>b@\027h0\301\222\324>\300^\267SA\325c\316\300\311\356\370\277\342\264\031\300\246r\020\301\205TXA.+\273?\316\216\016A~\217/\301\231\271\000\301\303`\217A_M;@\322mQ\300\250(&\301tSH@6\204\326\277\327`uA\317N\233\301\213\235\206\301B\201T\301\000Q\262A\207\370\314?ZBNA\230\035\017?\363\005;\301\336\211\010A\034\217\351>\200\007\254\301tf\221@\010]h\300\254\353\232A\220\361\323?\2729\205\301\334\302E@P\370\002A{\267\217@\034\241\300\277c\363;A\036\326\231\300@\207\316\275t\221zA\333J\246A\350\001\271?\251p-\302\317;\024A\346\027\022\301*)\r\302\020\036MA\006\347(A\005\207\205A\237\000\255\301\340\360vA\032\031.A\365\214\"\302\237W\320A\336\031\244@8x\245\301\024\344\026@\'9\225\277\3627~Ak\354\035A~\251\277\3001\2332\301\224\277\270@\240\\\301\300\261x2A\2120\372\301\027\303 A\333\302\037\301\026\3500\301\374*\235A\377)Y\301\324\016C\277\230\3524=\n\"\263A\254UhA;\366\235\301\262\264\224@\315`k\301\001\344\226@+_\353@\367\016\230\301\242\311\275@\326W\246@7\342\330@\365\266\226A\313\255\336\300\263\272\267A\221\t\361?\347\323\267@b\214\223\277\311[\234\300\323+q\301\346\"\266\300zU\374\300\332\3350A\250\013\205?\'G\034\301;\336/\301[\244lA\235\0207A\350\376\177\276$\333\014\301\257\320c\3006\330F@`\240?@\027R\022\300*i!\301\'\351\021\301* \364@\222x=>\264\243\315@h)\305@\022.x\301^\334\261\277\013\362\217A\343%\227\301PKP\300\332\007\222\301\005\314\223\301\3409fA\276c\303\276\362\345\013\301\213O\231A\252+\241A\316\327dA9\374B\301\236+\217\300\231\037<\277\267\026\222\301~\362~A\207\004\327\300\273\246\217A;\202ZA\277\352}\301[,+AE\372\357@b\330\200\300\231\005\351?\200\355#\302N\242\204A\322_S\300\244\327\207@\200\376(\277\363\267\352@\333\3377A%C|AyN\314\277h\026\005\301/\025C\301\314dh\300\026y\347\301\320$\002Bd!\010\301\366\306\316A\313\201/\301\347\226\212A\330\016~\300\212c\034B\354\315s\300Y-\227\301\243\240M\302\372\255\271A$0\262@\201}\256A\022k\347\3011eIA\033\355\315\277\224\217\030B\037,\022@>\323\232@\335\361\256\301K\355\252\301V|\313@\207\356\205\277U\216\222\301\342 \334\277\177\371\272\277>\342(Bt\326X\275[\nG\300T\245D\300\026\321\267\301\321\237\212>\2274\206\300\323\362\274\300\213\356\243\233\3231\300\202#T\200A\200\320\322\276<N\235\300\220O\262\300\007\332|\300\303a\230\277\2134\312=\363B\312\275\000\000\000\000\000\000\000\000\000\000\000\000\262\342b\276\000\000\000\000\036**?\000\000\000\000\000\000\000\000\000\000\000\000\343\342\342\276\000\000\000\000\000\000\000\000\343\r\314\277\343\r\314?\263lP\277\236\3623\246\000\000\000\000\263mQ?\006j\264\246\201\200\200\273\000\000\000\000\232|\214>9f\200\277gHx?\305\215=\300\022\326\372\245\000\000\000\000\210\023\025A\375\205\261\251x\027\323\300.\274\030\301\375\'\203@\206\023L\301\233\340]@\277\275\226?\2732\226@p\354\213\277\002W1A\023\026\254>i=\273\277\235O\007\301\225\321\270@\203u\310\301EU\026\301e6\363A\344\351\"A#\375[\301B\245cAo(\243\301\207\274\203A\233@dA\222\221T\300g_\017\302\263-\270\301K\340\232A\347\326\265\2774\306\325@\361!\367@\250\321KAu\3035@\247\203\241@s\303\356\300\300I\265\300c\223\251\301\000K\357@l\356\251\300y\3570A\327S\276\300\363\356\235@\002\200\210A\320\352\325A\177\310C\301\317\\{A\226\021<\301H\250\203A@i_@\274C\262\300\273f\226?t\260\017\302\036\233\364?\350\206\200@\236\200y@\243\010\306\300\242\230+?E \302@\262r\321@\350b\206@\340\213E@\005\363\241\301\273A\003\300>\244\206A\353`\267\300\014v2\300\304/\n\277B\'\230@\233\013\216@e>\200A\036\233\007\301K\234\321\301\2662\327?L\366i\301\277M\230\301{]\224?\335jR\277\365?\031A\2351\037A\214-yA*\322\216\300D\337\212\276z7=@\030\351p?H\232\231\301\177\224^\277y\244\355\3008\315[Az\305\213\300\'\004\300A\303\325\207\301S\314\032AF\333\371>]\255\220A\336\200\013A\211\321\314\300\206\264\355@;\344\206A\020%<\300\364d<>\351%,\302\010*\022A\033\220\000\301\306i\232\300c=6\300\363iNA\232\242\263\277L\235\031\301\037P\243\300W\024r?\237a\251\300\374\351zA\304\317\350\276\005\'\364\301,\351QAL\353\233@\007\000\273@\037x\'A\204[\347\300\277\373O\301v\226Z\300\234.\004A\340\2279A]ww\301\333\207\210A\323\004\035\301\311\251\241@\252\251\305@\364\000\341\300\223\267S\300\344\312\016\300\326%\320@\022EC@\005\337\004\302:CEA`%O?h}\264\275O\360KA\2353\202\301\347m|AH\227\006\277U\236H\300\337I9A\222\364\301?\247g\360\300\354\"Y\301\001^\211@e\272\177A\016\023Y\3017\321\244\3010\216SA\177Z\016@\216\037\220A\360\230\013\276p\372\273\301&FMA^?\037@\254\206\031>\202\214\366\300\254!\356\277\332QbA\021\325g\300\341\252\346@Z\276\016\301lmS\301<?8\300\256C\n\301\002\002{A\010X\207\301\005\327x?\267\244\021B\332\272\316?K\224\203\300C\333\235?h}\315\300\333C\347@\202\'\200\301\001\311(A\202Ei@\317\345#\301\n[oA\003\230w\301\366\270(A\2356\\A\230,\021\301\336\371g\301=\320\355@\311\020\021@\367\317\354\277\026:\274@\214Q\003\301\354\205O@\020\207\205?^\tN@M\226\"\300\333\306\205\277\035\035^\301$;\nA\317\311\373@\325\224\003A\274\230MA@\353\255\301\"\356\313\277\233\272QAd\327\013=2\274rAEJr\300\305\363\242\300\347\247\013A\031\3219A\242\237xA\003\217\376\301f\370\273\301\320\273\267A9\265\006?\010!PAl\330\276@\tk]\301\345\342\312?X\230\262A\353\036\254\300x\351o\301Q\246\000\302\306?\033Aut\330\277.)\357AJ\263\225\276z\200!\300\221\277\340\301\036\006N@\311\370@\301\311\0064AJ\206\026\301\314\262#\270f\032-\277\247\301\335AX\217\220\277\253W\"\301\374\375b\300\237\2225\301x\325A\277\362Z\035?]\342:\277\210\333~\230\000\000\000\000\367-\263?\342\232\234\276\303\323\013\277 \233\212\275\000g\356\276\302\346l\274\215\363L\266\000\000\000\000\000\000\000\000\000\000\000\000\000\000\000\000t\224\224\275\000\000\000\000\316\336^>\000\000\000\000\000\000\000\000\000\000\000\000\224\224\024\276\000\000\000\000\000\000\000\000\362\365E\300\362\365E@\000\000\000\000\027e\315\246\000\000\000\000\000\000\000\000\324q\251\233\000\000\000\000lZe\275\353\345\333?\"\224\356\277\250[c@M\0041@\371\307\002\277rK\310\247\332\360\024?\225\224\224\275}\254\303\300{eC\3015Kh>\310\252\302?\262@\367?\304Y\002Ah\226\n\300\023\247_\300W\355\021Aw\366\037\277\356\305\034\300\237\002\370@=\324\256>\020\201\330@_\225\233@\236$aA\347\004\255=w\236\307\301H\r\301?\260\321i\301\\\326\205@\014\231KA\303\370\342\300s\347\272A\322 \202?\334C\354@\016TJ\301~\324\023\301\270\250\350\277\331L\237\301C\013\307@\251s\205\301\340W\"\301\207\372mA\214\n\344@\377\317dA(\226\324?\034\231\256@\217\006\342\300\272\205o\301\3462\256@\021\\\237A\250I\226\277%\322\207\301k\225U\301\233\330\\A\000\361\220\300\357\t^AU\253\337\300\037\221\347\3006\374)@O\261\034A\177\022\257@\261[I\300\216\202]\301\035\302\000A\344=\361?\207\236\002Aw\350d\301\243\007\037\3018\r\374@SoVA\315\270\203\301\265?\233@\3543\213\301\241\202\201A^0cA\032\004\321?\2705\245\301\342@\235@\"\021,\277\220t~A\337\006\241\301\020\363\212\300\020b0\301~\3379A\253\301\r@+D\353@Y\\\333?\246\0169\301\334%\004A\264\206b\300~ka@\016g\324\276#\004\251\300Zp<At\225@@R4\212@O\257]\301\360\222\232\300Fj\251@\356\271\202\276\031S\227A\274\355\353\277GW\200@\227\251\321?\334\260V?\363w?AxI\006\302(*\367@\002\305\026\301\017v\255\301\036\r(A\242\261\021Aan\n\301\244\370\030\301\252\253\277\2776\nNA\274& \277+\341NA\330zY\300\337\n\026\302\220s\266A\217\217\307@\266dAA\030\344!AP\271Q\301\226\251,A9Z\256\301\223\221\302A7+_\301\202ZX\301\214\364\036?`\026\004?)\214\223@\341\'\323?c\237>\301\355\327\207\300\206\371<A\322\371b\300QO`A\247D\235\301\372\313\265Ap\031j@\214\223\324>L,\242A\207\033\222?Y\330\347\300P\010\244\301\243L\271\300\220\234\237@\320\372]\301\257\372\220\301\020\304\020\301\030X\303? -\254Apv\333\300!r\274\277\236\030\317A\034_\225\301\302\342\230AeV\373@u`\233\301U\234\373\300\261,_\301\250\372\256\276]\330\240A\2125\240\300MW\240A\224\372J\3001\026\340?\371\035\325\300cB\272\301\325\355\227>\177\003\335@\240U\204A\3665\\\277\310\020\233\277\310\222\205\276\350\244Q@\226 \250@\277\016\nA[\355\206\301\306\331\222\301\031z\004B\2743e\301\367\222S\300\225\373\033\300\001YwAh\252\341\300\205V\244@\':\233@\223\370\023\301d\177\200\300\030\220NA\274\017\r\301$1\256@\340\334\311@\326\231\375@(\3635\301\235\027\177\300T\226\"\277\035c\363\300\200@\320\301\252!\315@\314\310\307A\324i\206\301\214\215\264\300\333r\317Am\004\267\277\360\360T?{FhA\326O8\300\013\361O\301f\006\274Ai\337\277\300\357\202\312?\000\017\333?\205WZA\022\271\235\301\343\365U\301\310\260\310A\023\263\005\277\253|\326A\270dgA\325\266\035\302\026\017\256A\026\tmA\240*-\301\tl\305\301\371\326\333\301aO\241@\030\342o\277X\230\323A\246\t\362\300Gw\025\3017\3020\301e\276\236A\210d\270\301\252X\035A.\250\023\301\372\266\034\276\317\036\333\276\353\373\306A\341=_\277\027\346\324@\017\035\210\300\211\030u\3019\266\303\300N^%\277JLo\300\326\324\324\275\203\020Y\257\362\343\215@\3773\271\243\274\342\224\266&\342\r\300\275\223\333\277\231\374\234\204\276\250*\276\256\251l\276\000\000\000\000\000\000\000\000\000\000\000\000\000\000\000\000\000\000\000\000\231z)\226\000\000\000\000\000\000\000\000\000\000\000\000\000\000\000\000\000\000\000\000\000\000\000\000\024s\273\277\024s\273?\000\000\000\000,}B\246\000\000\000\0001\374\362\257\244w \233g\275\231\206\255\350\367\276~\310\272?N\303\r\277\026\334\373@\314\017;\276\213&#\300\325\0131\251\0030Y\277\222\214\014\277\3543\205\300\034\217\340\300\252\252]\274\216\037\325A\276\343\324@\342\212\263\300\210\376G\277U\342\266\300\037\217\002\301\376\370\376\275\220\334\273\300\375\027kA\226\243\317\275\260\305\232A\320\256\276A\013\272\270\301l\265\r\300\374\035\262\301B\027\014\301\262\2143\301\256_\034A**\233A\217\204\226\300\020C\271\277\274m\\A\303\027\"\301<\302\214\300&)!A\021\336\020\301\000A\211\301~_i@\025\217?A\265\231\030\301y\235YA\312#6\301\036\351K@\204T4?\255\311\203A\033\356\356\300\001\216\330\300\375\203,\301N\211\207\300\267^5\300\200\371?A\270\313:\301\332\2318A\210o\300\301\234{\216Ayh5A\3128\322?\364r8\301\\2\232A\242_+\276\024\3304\301c)\257\301P\233-A:\250\005\301\351\036\361@\037I\202\300W\305\027\300\344\006(A\273L\341@\251\331\013A<\263\'A\200c\016A\274\327\014\300#p\274\301Er|A6\000>\300[\266\355\300\310\226l\301Bf\366@l\236\026\301\227\315\277@-\362\225\300\034>X\300hm$?\304S\004A6#\216\301\367\013\010A\'Z\204@\320\255\217@\322g\337?\014)*A\253s\005\300`c\307\300\310\301`\300Z\033\007B\373\263*\302\317Y\204@\210\370\216\276\223\037\237\300\273\317O\301\304\034\352@\341q\304\300\317\344\"@\316,\271?]g\213\300)\217\032\300F\006\345Ar\t\021\3017\312\037\302\230\n\035A\036U~AH\205\232AVru\300\257I\010@\320\023\222\275@\031\371\277\347\321\227@\3640\303\300M\331\237\301\367\010\261A**\017A!B\035@\350\350\211A[D\262\301i\2057Ap\030\363\301L\365\234@\n\033\260@[6\006\301R\"\n\301\362\003\222\300\307\263A\300\241q\253AT+\267\277 ;=\276t\324\204@\"z\242?\206\252\037\277\242\034&\301\306\020\031A\346 \202?H\017{\301\343K\'Ai\360b\301c\204\203@\226\321I\277\031\006\031A\320\240\312@\020e]@\001\001\033\302\237\240\311Au\263m\300\253C\025A\302\215=\300R,9\301\317\r\tA:4\010?^\221\036A4\177\231\277\022\313\253\301MI\215@5P\260AN\225l@\225\n\220\301\302\030e@x\250\217@\355u\236\300\335#\355@z\304\207\300+\377\206\301Z\256[?8\201lA\211}\302@[E\201@\365\3239A\031\316^A>\221\304\301\251x\263\300\374\332\376@\224\030\233\300\275\302\023\3019\344\251@\274XbA)\312\374@\\\344\r\301T\217\312@\373p\273\301\016a\227@\017\200\330@\321cK\300\367\020\326A\r8#\277\247\0169A77\331\300\242\235q@\216hVAg\n\010\302u7\215\301\370~\347@\211T\007\301=\3764A\352\212.@i\213\306\300\317\251\222AnR6?\346S&\301\376m\312\301\310\260 A\242^w?\235\336\363\300\323R\214A\025\277\265A}\363\001\301\027J\024@\243\303\025\301\025\333\204\300\216\365\262@z\t\237\301\3752\232@$T\034@\220\241\217A\315\373\335A\206\344\231\301{\020\001\300\033\347,A\016l\273\300ev\r\301\253\213\336\301\006hj\300,\033U\300\341\037dB$\014Q\301\034&\r\300\212!\023\301Ok\201A\224.\236\301\240\275\037\3015\343?\301\357\343,\300\216\n\010\276=U)B\322w\235\277\370B\333\300\345\253\004\301\035\303\030\301E\244\267\300\010\020\235\300\225\210;\300\224\224\024>\277\306\315\276\017^\022A\206<B\252\315\314\314\276\226?\201\300\344\356m\300\237Z\310\276\264\255\257\276\217\324\321\251\000\000\000\000\000\000\000\000\000\000\000\000\000\000\000\000\000\000\000\000\000\000\000\000\000\000\000\000\000\000\000\000\000\000\000\000\000\000\000\000\000\000\000\000\000\000\000\000\031\005\002\277\274\250%?\000\000\000\000\302\235l\273\000\000\000\000\232J\323\255\010 _\232\030\334\n\276\352q\014\300\000\000\000\000<%\247@]\237\222@=\3304@*Up\300f\002\230\251\303&\r?\350\334\334\2764\244\331\300\026\210\326\276\022\303\017\276\034\026\215A\010i\232A\340\177\240\301\366X\271@\264\212\177\300^L\327\300\263\3763\300j/\t\301`\341\354@p\210c\277\250\201\020A\303\203\272A\236\341\t\301\250z\350@a(\272\301\360\242\252>\3106A\300\345\3238\301\246~)A\302\254\023\3013Y\376@\306c5\300&\025#\301yd0A\244?\"A\231\214(@\'\342 \301\232u \301\202\370QAp\231l\301\202\321\026A\272\037\352?#\025\"\301\025x\357A\335\302[>\254)]\301\374\225\217\300>\3124\301\376\034YAR\261\362\300\236\204\257@\255f\204@q/\254@@B\023\301\003bK\300\371M\247\301}\302\217@\207\007\372@[B\022\301\362\234!?Sf\315@\274\334%\301\026\347\026A&8\224\300E\317\022A\356-\025\301\024w\206\277\r\265\rA\300n\030A\331\333\005\301\317\003v@\304\345\363\301\254\346\030AD\345\345\300N\326\263A\3164\t\301\320\322_A\n\r\231\300\237\314=A\031\236\206@\353\023\300A\206\202\310\301\270a\337@\313\322\225\301\250\311\265A\177\201\316\301\204\377\024\301\001&\022A\363/R\300m\001\\\300\317Q9A\276\321S\301\223o\021@\211\377(\301\340\332\264A6M\327\300\273\235@A\252\3743\301\020t\214@M\023\371@P\203\005A\377\265\211\300\000\004\322\300K\336\304\301P\362\036\300*s\256\277%\276xA\r~P@\202\317\304\301\346\370kA\270\016\222A9\203\314\300\256\025\223\276!\373\217\301\376\0101@\376)I\300\0357MA\023\253t@\315\r\251\301\231^\231A\305\301&@4o\"\301\367\342qA\267\250V\301\321+\352@J\260\220@9,\030@\277*\315\300\357\340\214\301\022\213\303@\002\2070A\210\234\233\301\031\203!AX\242\327\300]C>\277\335P\326@\034\230\017\301e\250\234A\2677\000\300\033\375\005\301\354}\262@\007A`@\214;r@\240\275K\300*W\334\277t\030\301\300N8MAx\t\214\300\202leAC\271\373\301.\232\237\301\226=\207A\036P\030A\335\214zA\245\221\270@6\2308?\224\243z\301\252f\205@[\002\376\300\234[\177\300\344_\330\300%\354\200\300\362\313\255A\364\201|A\211/\205@\244\231ZAHH\311\301ky\356\300\306\260\006AG{\r\300\260t\357\275\231M\215A\033\260y\301\265\024\260@D]\247@\247\017\203\301\331\341 A\354\331H\301\221\005KA\347U\234\300\345\310\367\300\3350\252\300\2614\227\277\310+\240@l\220%\277\252P\020A\240\006\361\274X\030\335\300\225\247\014\300\237\310{\300\350\206v\300\250\235\337\277\177\234\217@\261\327\221@\203V\237@\344\321\014\277k\353\251@\366\270\341\300T^\017A\231\201D@\300\037\237@\343q\333@\2248\"\301\003y\001\301h\017\336@%\345\301@\025\2678\301f\262\342\300\212/\232\300\370\3513@\2766\226\300v\255tA\317\251\r\301Z\345)Aw \237?$2\036\300\017%\216A\024)\327\301PS\246?P4\331@ Y\245@\016aJ\301:~\235\301\242\373\030\300\306\350\231A\227\202mA\302\214\217A2q\364\301&\323M@>+\233\300\221\317\206B\002\234\264\301\302\307\237\301\224\221X\301So\253Ar\313\320?\316\245\310\301\005^\365\300\r\023`\277\252\315\224?_\223\204A\375\201\201\277h\357\234\300\267\336\027\300TO\211\300\354\037_?j\247k\300\224\000\274\277(\212Y@:\367\177\277$\340b@0\210u\260\336\335]\300.%\240\276|5\226\277\2138y\277\357\216\220\274\356G\005\254\000\000\000\000\000\000\000\000V\207v\235\365;\030\224x\232\245\277\000\000\000\000\000\000\000\000\242\002{?\344\321\314\275\026\231\323>\000\000\000\000\000\000\000\000\205L\306\271)\035\022=\000\000\000\000\351\362o\272\000\000\000\000\000\000\000\000\004\301\220\227\306\320\014\275F\024\330\277\000\000\000\000\346M\\?\226v\232?\251=\322?\t\257\335\277\035\207\244\250du%@\010\361\177\276@\002(\300\340\332\346\276\233)\303\276@\025\225@\315\217\326A\024\031\003\3013\262\035@\327t\254>d\323|\275\313\2732\301\351X`\301f\331\260@\203\233/\300\207\207NAZ\032\234?\213\355\370@\247\201\312A\231\327;\3013\300\357\277,\016\220\301<\017\223\301\263c\217\300\267~6\301\317R\004B\\\270\027An\2725@s\336\342@\223\352d\301\033\265\373?\250\336\265\300\344\246\224\301\361s\357>o\274\001\302\2729\367@I\336pA\037\3519\300\267_\232A\220\311\201?q\354\232\301{\352\271@\366\277\252@\254\347\247\300\246\365\227\301\031\357tAj\021\335\300\357\225\300@\373/\032A,\200YAJPG\301\3008\363>>\\\266\277\304\025RAJY\002\300\350\363x@\360tU@\"\361F@\0378x\277\276\306\220?g\367\240\300\005Y\354\300\325\302\022\301\254\307\201A\265\214\256?\272\373L>\242\265\220\3018\267\032A\0231S\301U\245GAzK\376\300\357\240\266@%\377\314\300_Z\035A\224t\020\301\222S1A\032Q|\301\334\244f\301!~\036\301\016L\213?\n\017b\3009\352\204A&\201`A \320r@<\214\275=\206\214\275@\t\212\232\301\005\363{\300\271\275\032\3008\227#\301\345D\n@*|TA\344T*A\317\3742\3012\213\237\277\266\212\314A\305\256\276\301\251u\001A<X\214>\251\023\350A\211B\214\301\235SnA\263K\300\301\033\232\303\301\"\220\027\301(\230\243@\272)l\300vTZA\363?\265\300\037&\277A\376\276\324@\252\232f\300\003\330\032\300\236c\021\301\270b\342@\000\230\241@\206\313\340\300\006L\033A/z3@iA\240\300M\034U\301N\205y\300&@[AM\324!\300J\027j\301\034N\271\300qa$A\000\336\226>\231z\237?\013\002\213?\204\301?\300\220e|@U\242\021A\"B\030@\231-\337\301zC\334?!\354\243A\302^dA\234i\007@j\025{@\353\332\266?\343\010\201\301\202z\023\300\305\373\356\277\000\003\263@\236\231+A\346\206\241@\341\321M\301\350J\007Ay\217\035A\227(3\301%9/\301t\2272\300\234\256z\2777M^A\337\214\201\300&m\376\277\240=\350\300\035|@\3012D\032A\306S\276?Ag\023\300\'_e@\330\323\373\300\273u\201\277)i\374@\344>\005AH\345\301\277\214\3416A\032\356\265?+\324\216\300\3162\213\300\316\271\035\301\000;\242\301\345\330:@\336\203K@\t\2519@\266H\305@\336\273Q\300b\312\032\300$6\320\276(z\006A\262\3453@\"\367\037\301\331\027\206>\005\337\374@\003B7Ai\210\036A\277\263\223\277\221\262,\300\312t\254@\377\320\207\301\364\321\202\300\270\326\200Aa,\301?\223\334b?\014\321\211Ai?\247\301\274\025\035A)b\365\300\253\335\243\300f\347]\300\003 \006\301F\304\261@]\276\316@\357\r\355Az\242\335?8@\017\301\330\304\221A\242x\307@\265\312\375\301\030,\347?\267\263\347\301\257\022\263?8\354XA\357\213\036Bq\310\244\301\330\347{\301-M\027AH%8A=\203q\301Q\356\365>Y\322\304\301>\307\255?\255c\020A)\026\033B\343mS\301\343!\214\301!a\000\301\3150\204A7\345.?i\345\226\301\270\347\013\301\324\203a\277\221\343\202@]\2127\277\373\371\230\277\013\202E\277\376C#\277\242F\253\277\035&\206@\212s \300v\247p\276\217\003\027\277\000\000\000\000\315\302\036@d\244\243\257\000\000\000\000}H\014\277\225\337\253\277\000\000\000\000\000\000\000\000\254\304)\254\000\000\000\000\000\000\000\000\226\024\232\236\000\000\000\000\000\000\000\000\000\000\000\000\000\000\000\000\000\000\000\000\356\204\257\227\000\000\000\000u\203\202?\000\000\000\000\250\334;\265\322\320\320\275\375\351\024\300\304\207\235\232\273S\310\242\234\200K@\235\356^\231\242\243\342\277\337\311\305\276(-\347<\365\362\252?\177\370.\300\251\333\t@\267\006\032\277\254\203\304\242\224@\003@\020\274\036\277\\\003\235\277s\263\362>j\361F\277\374\344\217\300\344=\350A\265\3657A(bI=\002\263\364\277\026p\315\300\217\237r\301\274\200D\301\310P\364\277\272\"\353\300I\301\346@5R\226@_\262\210\277SI\276Ac8\017\277&\377\242@\273\252v\301\347\313g\301\236\276\014\301Es\353\301fn\013\3006A\353Aq\233\007A\302\034\261?\367\312$\276k\035.@\344\316*A\251\203A\301(<\366@dE\343\300\331\260\274\300\376\374\216\300(\300\240?qiSA?^\027@g\371\302\300\353\301\\\300\323\276\036@r\363\266@zV\221A\302\331\303@F\251\006\301\010FP@3\025\376\300+\274$A\005\031\256\301\261\345g\301i\352\020A\200\320v@\314K\007\277W\251\340@\345?\331\300m/\232\300\270\306wA*E\241\300W\270\002\301\'\317\242>T\365\252\277\320S\334\300\224\364vAp\235XAn\345\346\277gA\216\301\346j\272\277\363\3400A\200\277\330\300\034\232OA\002k\222\301\004\255#A5\221I\300\203\223\254A\273\241\335@8\022\307\301\266#\272@\202#1A\212\307\027\302\314\227\203Af\305\302\300w\344\205A\261\260\024\301\357\326:\300\360\205l\301\032\\FA\344\342.\300r\025\341A\306\345\264\300!\253\201\300\016\261\216\301\302aDA\200\354\177\277J\236\320?\272\356\337\300\322\034\363\301\020\017\370\277\211\215\213A\316J\324@cNA@\262{-\2772\376\334\300\200 NA9e\247Ad,\314?\251av\301\354\367=@1\002\247@ek\257\300\240\332*\301b\374\243\300\213\222f\301\240\r^\301\n\377P@\310\265/@\3354|A\327Z\000\301F\252\230A\000\276\213@\231\356\022\300\324\275\323\300E\3463\301\030\376\315@\3478YA\344\211\316?\212\373\261\300\311\223\026@\256\231\035A\230\362z\300\335N\372\300\332\376\250\300\256_P\301\220(\220A\0222\342@^\310\223>\002\326\343\300\325\333J\300K\000\344@r\037:\301~jq@\361\020\252\277\376\275\370@\002q\002\301ah\031A\255viA\017\251\022\301\272P\231\300-\224\035A\223\270\\\301\324\363\256@\246\3205\301\222\332\236\277x&\303\300\030`B@\250\000\023A\351\035\203\277S\335\013A\232\0237@B\215[\301\360O\272\275\0064\323\277?\352w\301\2373\001\300N\000\314\300X\260\333@\311\335\000\300\364@\355\300\177\r_A\322l\217@\336\300\203>\366\252\370@\337\320\303@\340\016z\300\023\003\311?\246Y\227\300V\356]\301\276WpAE%u\300\226\200H\300\343\303\214\277\266\200\373@\024[\257@\030\205\237\300\245\033\330@\215h\340@\311\324\n@\354\203\031A\'\346\023A\'[5\301)\272_\301.7\037\301\004\312\236A\300\222\313@d\234jA\232\330\365\277\2002\005\302pU\306?I\332\225Ax\374\247\301\335\312fA\027\343\232\301\262\346\030@\021\020\220@D\002ZArX\031A\361U\275\301M{\233A\241\303,A\033\321\n\302C\\\373@\234\024\035\301\003\354\032A\272\277\024A\257E\002A\367]h\300ye\201\301\007L\205A\344\036\217@w+\331\300\372\313.\301\347\324+\301Zi%\300Z\306^A\252\277\030B\240<\275\300_\001-\301\315\271[?Ph\203\300LiK\300\272\206\233\301\335\324\335\300\203\247\302\276q\352\200@\230\n:A\213\237\356\276\342\340\340<\2467\244\3004\332\221\300\357I\244\230\002\354N\300\331\020\365\277\022O\302\241\000\000\000\000\266\033\236?\000\000\000\000\000\000\000\000X\205\200\276\301\364{\277\000\000\000\000\000\000\000\000\000\000\000\000\000\000\000\000\000\000\000\000\000\000\000\000\000\000\000\000\000\000\000\000\000\000\000\000\000\000\000\000\000\000\000\000\000\000\000\000\000\000\000\000\226e$@1`\340\250\216\276\203\275\323\263\355\275\000\000\000\000\367N\277\231p\310\314\256\221\220\220<\235\234\234\275>\026\025\300F\203p\277\305\365\332;\313\202\304@\2216\177\300\"\343\023@\246\350\250=\365\3653\257\322\316\371\276\"S\231\277e\305\366\277\002\206\277\277Z\t\037\277\377y\341@\257\300\240A\341Y\330@<\366\206@\377\2702\300m\357\013\301\332\245N\301\216\3018\301\305!\347@\316\242,\277+\227YA\204_\246A\013_\235?\200\024\215?U%\276\300\021\357\227\301\312\232L\301\247\277\261\300\246\326xA\232\243\006\3028\273OA\016]DA`\340\216\301\341\021\225A3\271\241\300\013\036f\301=\345\007\300U0ZA\245\343I@\252g\341\300\223\277pA!\351\342A\366\020\224\300*G-A\322S\027\301\202\354~\301eO\264\300\215-k\301\204\336\352@\037\013z@\033\337\357AN\001#A\346F\261\301\302\255#\301\264;\231A\263\316\266\301P\370\220A.\320\005\3022\234}A<\357MAl\244\245@R\250\347@2\244\363\301\272\225\373@*U\370\300\36109\300fU\235?0\350\021\301\233\000\317@\241\024\022A$\367CA\243\263\202A\372\325\264\300\001\'VA\332\220;A@s\254\301\332\002\226\301\321\251\272\301xz,A\rK\352@\216\357\rAZ;5\300\212s\265\301\374L^@\365\021\321A\373\311s\301\301\001\336@\315#\266\301\240\201\007A\352\221\337@\311P\311A\210\207\024\276\355\227\330\277\021W\023@\201\261UA\250\217e\301\321<\034\301\270\240\362\3017V\310A;N\036A.\257\322@\031\325\337\301\315\207\370\300\326\220p\277\302\324\313A5\227\226\3000\327\211@\013R\357\301\237\026\223>\216\267\252\300\340\336\326@p\327\367?o\356\214\301~?\375@ \210q\300~\307C@\016\235\235@\007\275\361?\274m\004\300\253i\221\277\331\'\027\301OK\203@\310<\267\300\207\205*\277\205\333\334A/\023\231@Z\234s\301\371J\016\300\236\361\034\277\177_9\301r\376\301@\324\263[>\005\250%A\316\032`@\317\200LA\016\036>\301zZ\301@I\376m\301\257]G\301(\270,AtR\244\277\036\037\320@\021|{A$\370\331@\366\326\267?K\222R\301\207\205q\301\270V<?\232\010\207\277\"ccA7\335e\2772\330\221?w\371\231@\317\030XA\"B\340?\370\237\336\301\024&\206\300sN\271\277x\004\210?\304\034hA\306\272\372@\224+?A<Y\326@\335\260\341@0\025\205A\330\007=\30223\267\300\327\034L\301k\224\227@I\020\256A\037\337@A\007\337V\277\326\010\227\301,\0057A\010F\331\300\365\363\323\301\342\230h@,\257\036\277\260 H@\266\222\020A\3467SA\360`\214A\025\234\003\301\322\334\232\300\367\201\224A\2775\022\302\342\013\212@y^\201\301U\003\270\300%i\037@k\201SA<\251f?\207\204)\300E\344K@?\235\036A\273\312\233\301\035\223\224AgE\243\301P\331\251@\257\203&A\025\003\001A\212\037\220\300\315P\213\301x\266\346A%a\021\3015*\234\301\340\312zA\026\"\216\301s\r\276\300 Fi?\331\346f@F\036\026A\236au\301\000=h@\005*\031A,D\205\3010~]AP\315@\300\022\257\231?vF\264?\257Y\271A\036N\277\300\035\251-\301\230\200\206@ \215\315=c\006\031\300\033\272\217\301oq\343@0LG\300Q\031\224@\363\013[A\3609q\300:\273>\301E\366eA`1\264\277ZL\252\300\241l4\301\235\315\203@\332\231a\274\262\354{@\352\013\305?\226\375I=]>\337\201$QO\277\017\016\335\276q\260T\230=\025C\300|[\234\277\000\000\000\000\000\000\000\000`x\355\243\000\000\000\000\000\000\000\000\000\000\000\000\000\000\000\000\000\000\000\000\000\000\000\000\000\000\000\000\000\000\000\000\362\360p4\007\373\252\233\207d\256\220\000\000\000\000\000\000\000\000\000\000\000\000\202\'-\206.Bp\264\000\000\000\000\000\000\000\000\225\226\2263\t-\210\2742\226!>\000\000\000\000h\323M\231\372K\\\256\355\250\374\241\226\220\020\276\227\334\321\211\025\023\202\300\374\225\020>\272%(A=\371h?\037:\201=\373\376\361\277I3W\260\034\375c\300\276&\235\277\014\311`\277\021\317\024?\306\246\222?\374\0334A:\000wA\266>\210\300TEQ@\346\327D\300\341\3251\301E\n\377\300 \276\250\300\251\347\261?\254\034\364@J\312\'@\207Q\036Au\037\257\300\256l\222A\362\245?\301\032\267\243\301z7d@4\245\257\300\356\304\306@\323s\302AzL\030?\217EJ\301T\336\373>VN\004Ab\016\216\301kir\301\016A\340?r\035{@\014\252\301@\370ssA0\264-@v>KA\240t\252\301B\265\256@~\202\236\301ZVu\301\'L\215An\213V\300\371\340c@\023\333\013A\242r5A+\351\215@\r:\220\301x\255\256AM_\213?\376\273\313\301\3140\036A\000#\213\301\335;,\301\013\266\"A\006\262\355\300\016|\325@\030\n\202A\033\250\242@\022\336\231@\265\310n\300\301\026\033\301c\3555\301V\335\362>\253@\357\277\000\'lAz\353\231\301\177\200y?\301|\327@=\326\000A\002}\240\301H\377cA*a\202\300\217.tA\003\027eA\243\342\014A\220G\356\300\227\362\353\300\236>c\300\212v.?SR\342\277$\315\334\300Nr@\301\2607JAD\203\327\300a`\001A\337\301\271\300\200\334l?C#\342@+g0A\034\3439\3017\2625@\224b\223\301jFrA#\001\304@\226 9\300\370\002\236\300\362s\263\277\300f7\274\343\004\263A\036R<\300\r\031\236\301y$;\301\027N\300?L\311\302@\036\333\017A\224*L\300\261\177\360\300\230\316+AF\251=A+\'$\301\304\337\214\276\211t\217\3012\013\223\300\345\275\"A=\033m@\361\3324\277p\301\023\301.\n7A\201\361\304AB\263\240\301\244\270\250?\330\006\205\301\214`5\300\216\315EA2\345\010\300\346\rd@\350\377\205@\270\216\354>\234\352\000A\250\346|\300:6\025\301\266\036&\301\3323\364@E\t!\301\265w\343@`\346\010A\323S)\301\037\254\007\301\235\":AU\250\"A\360H\367\300A\331\003\301\237/6\301\361x3\300\357\006\235A9\360\367\300\237V\005@\376\016\025A/E\215A\336;:\301\032J\025@\335\206\213\301\023X\024\301\250e\250A{\341}A=No@\377\003\020\301z\257O@\371\256tA!\322\204\301\014\212\272\300\242\352\223\301D \205\301\275\263\203?\262L\270A)\314\247A\342:\205@\324\002\024\300@\251\361@j\026\310\301h\215!=6MM\3017\024\010\301^\313\237A\256o\331\276js\323\300_\276:\300\303\273\\A\260v\021A\341g\273\301P\330\nA]\210\032\301\203\306\031\301\177\211\237As\2624AD9\014\301\002W\254\300\004\315\252A\232\250\226\300\253#\260\301W\310\364\300\264\226\261@\333\374\\@qaU\301\253\227?A\265h\203\300q\265\337\276\201\313\245AH\353DA\032\221\250\301\313\332\023Au\377\225\301\242\271\274@bz\376\300\372~\300A\023\352=\301I\035\360@(\274\247@S\242G@\036B\227\301 \241\255\277\013\241\267\300;<\251\300\232\270\355@\326\374XA\243vC\301\017A\321\300\346\215HA(\267\250?\345\327\240\277\033\343\267\301i\030WA\221\363\010\300].\236?I:BA!\304\202\300\225\2071\301\242\261\217A\265\033\255\300\026\000\207\277\226\311\334\300\313\241&\277\302\266X@\367\037\351>\202\360\341>U$\021\277\300\332B\276\271\\??\230*\303\273\352\316\361\276tT\204\277\222\2630\300\000\000\000\000\000\000\000\000\000\000\000\000\000\000\000\000\000\000\000\000\000\000\000\000\000\000\000\000\000\000\000\000\000\000\000\000\000\000\000\000\000\000\000\000jii4/\243\245\233c\361\250\220\000\000\000\000\000\000\000\000\000\000\000\000F\276\'\206\035\300h\264\000\000\000\000\000\000\000\000\227\226\2263\310\271\325\232\251\375\331\217\000\000\000\000\000\000\000\000\000\000\000\000bqX\205])\226\263\000\000\000\000a\356\021\277\361\256\016>\246A\303@\024\211\215@\000\000\000\000\324\205\224\277If_\255\221A\317\300\357\317D\277\213\025\330\277\363\001Q\300\264\2506\277\007):A+\\\230A\340\225\302\300\364\307\002@\214n\017\300O1\215\3011\256\021\300\243r\376\276\325\214\213\301$\260\306@\370\0271A\234]NA\2327\017\301$lUA\231t\311\300\210e\240\301\224\204(A\336<\247\277\252\314\207@\373J`B\003\354\274@Xs\223\275\247\311q\301\315}\261\301\321>-\301\213\310a\300m\213\324@N\030\251\301 h\005?\005B\311A{W\212A\347\356\205A7\2128\301\325\202(\301\001\213\270\301G\357\270\300\323\332\032?\270z\026\301\367\350\322\277\377\2558@\316\204IAA\371\253@\3322i\301\3022*\276\361\271\016\301\211\034\022A2\344z@\340\217\t\301T;SAo\316\007A\237\2015Ah\0035\301\345\276n\301\033!\237?\223k\217\300\236\246r@\342a7\301\302\201\203@\014\274\033Ax\021\302@\207\033BAex\034AO\230\265\301Z\037 ?@:\245@\370,\310\300\366\241\026\301\030\035\244\300\212~}@X\311$\277\220z\210@\335\013\203\300<\3766\301\020]\003\301\246\3103A \332\345\277\262h\221@\342<\013@z\272.@\277\033.\301`\207\273@\016a\022A\014C*\301\343\245\204@D\222)\300\262\255\020\301`\206NA\226\334\311\277\310\007\272@\242\321\331\301\356\362\336>\271\320\267\300o\235`\301\261#\016A\336\310\021A\017?(A\tb\204@\022\321\001A[\340\000B\353\254c\301\330zO\276Bc\224\300\377[\025\300b\375\225@\265NvA}{\213\301\206\213F\276\223IT\301\234\247!\300:\361_\3009\233I\300\004\333\217\300\300\224\311\300\2359\035A\342j\262\300\357l\374@\376\334\016@t&\263@\2173\312@\351\2421?\002\003\000\300\036\320\272@\233\304\201\301\203\254\320@\307@\232Av\337\036\301\374\305\337@\243\366\213\301\331U\335@(\353\243\277\032g\203\300\\\346\370\277\305Yr\300w\330\322@\001\353\245@e\362\210\300\310[)@.\014\276\300FI\364@%t\212@\'\032\307\300\235r!A\313!\016?(\t\377\3008\n\235@\344\313\353\300\331\300\240@\010\241/\301zf\352\300\004]\211AG\242\260@\325K3@\361\036\307\300\266c;A4\300\357\300\334\n\031\301\272/\261?\331s\377\300l\227\023@\261\256\023A\027\203\277@x\245\014A\252\224\'A\004\215\017Abd\033\300x\265\\\300Y>V\301!\354\323\301S\250\320\300)#\314A\343R\033A\213\372\027A\241Qd\301\313\354\024@\201 aA\305\024\253\301\260\3375\301\203\201\362\300\315\337\315\277\252\311\255@tP\216\300\357\004\304\277\2675\251A\'\005\021A\362)+A\332\322\000\302[\330\274@J;G\301\254\027,A77[\301\177\326VAw\205\"A\006A\361@`;\222@I{\026\301`\355\254\301\326\370\237>\353\222\002\300\365\263\000A\005\204\302\300\2126\233@C\224D\277\250\311\017\300b\022\211A\352\232Z\301\2550\300\301\2627\212\276\356+\210A\241D\276\300L\252`?\374dkA\2361\030\301\201s&\301D\340PA\'*\237\300J\301V\300!\3725\301\213[\207A\330\267\037\300\242\375\t\276\260X\261@mM!\300\034\267\367\300\251\237\003AQ`\316\277#\243<\277K\321\362\277\344\244W@\265\264\264>\314q\371>\353\335]\300<\242\030\275z\273\266>\332\331Y@\310\306F>\300j2\276\330\274\000\277\2770\035\277\000\000\000\000\000\000\000\000\000\000\000\000\000\000\000\000\000\000\000\000\000\000\000\000\000\000\000\000\000\000\000\000\000\000\000\000\000\000\000\000\000\000\000\000\000\000\000\000\000\000\000\000\000\000\000\000\000\000\000\000\000\000\000\000\000\000\000\000\000\000\000\000\000\000\000\000\000\000\000\000\000\000\000\000\000\000\000\000\000\000\000\000\000\000\000\000\000\000\000\000\000\000\000\000\000\000\000\000\000\000\000\000\000\000\000\000\000\000\000\000\000\000\000\000Z\366v\224\250\013{>\226\264\351@\223\340i\2270\033)\276\000\000\000\000\344\232\244\300\360\023\250\273b\376\016\300\337&\366\277\266\272\343\300g1\230\300_\010\316A\"\373\340\276\317|\250@\000\000\000\000\313hv\301\355\334,\3004\235\250?\201\270n\301\275\323B\301\331U\320?N\261\336A\377\205\232\300{\353\200A\357\036\007\277t\350H\300\207\203\360?k\331=\301\022\001\024\301\212`\252A3D\363\277\224C\236A\021V\014\301\324\3263A\033<5\300z\007^\277\237si\3012\274a\301B~\313\276\321\246\362@\262=\346?\221\365bA\276\214\312\277\353\017\035A\037\002\342\300NA\"@\260\230\\\301\355iQ\301rt\002AO\337\264?\262R\211@%\230tA2\323\213\277E4T\301:\263O\301\252m\206A.\335\374\300d\\+\301\261\371\341@_\r\025>:\262z?\277`?\277\312\014\031@g\313\334@\354.\242\300^I\355\301\rU\207A\010\212\212?L\0179A\242B\030A:\205\203A\327\227\004A\025\264\200\300\252_\330\300\326\004\027\301\211\275\006\301\036a\307?\004\312\225\301\270\220\\A\260V\177\300\031\004u\300\242JN\300v\310\214@\017\325\221AA\264\277\301\0039\227\300\370\224\244\277\342C\223@\231j\004A\'\375\235\300\256\324\002A\377\006rA\026\304\236\277f\335K?M\3745\301\276\t\205\301\324j\004A\200\020\317\300\337\341\234@E\242\224A\250\343\002A8,\277\3011\t\320\300\226t\240?\201S\213@/;d\301\037e\371@\352n\315\276b\315\013A\n\341\344@\026\031+\301\274,SA8\345]\300\330\234\301\300{\337\360\300\210VA\3013\\\264A\307\373<\301\000A\360@F\355E\301\204\243\003\300c\322\025\301v\230\275?\224d,AP\225\035A\2267R\301\0029\326@\030j\037?zr\010A\367\035IA(\365%\301\264\255\341?/\022\275\300t(8\301\234a\373>\262\017\240@\033\206\342@s\212\364\300#E\227\300\333\244\033\300\241\343\350?M`j\301\210\017\021A\030\323\204A/z`\300xX,\301v\357/A\207y\031\300\347\373\356@\027#\204A~T0\301\037[M@\333p.\300\366\301\243\277\327\245p?\314L\216\300\033ie\300Ww\242\300n\020\255\301%\265S\301\227b)A\201\035\205A\n\3517A\203\331\204\301\320 #A/\357,\301\321EnA\370\246\303\277r\275j\301:\300\236@*v\220A\337j\340\300\363/\241@\310\006\t\301\331\351AA\266\321\310\301\344\225\332@\036\204\005AH \213\3018\235<\300A\346,A6\3372A\303\316\251@$\'EA/\022\032A\270\344\002\302W\023\366@6\325w\300ex\024\3017\301\301\3003#\213A\314\016\020\276\323\267:A(9\265@p\003\301=\217\270\003\302\322\201\372@\231;\270@p\320\272\300\3640\257\300\311\320\317A\306\354\225\301w\200M\301O\363\244@G\316\332\277\201`~\301\326\333\323@\346\005\266A\333}\340\300r\261\007\301)o\256A\2543\302\300\335\364+\301\220>wAK\245\222\300x\304\323\301G\337\217@\021\347\254A\276\002\036\301\231<H\300\'\246\225A\200\037M\300tj\'\301:\317\021A\n\336%\300\347\345\271\300\307s\341\300\001\315dA\244\335\005\300\340^\"\277e_\274@\326\246\310\277\374\234h\276\316\264!@\340\026z\277\362\227\225\277\223\310\220\277\336\253\035\277\000\000\000\0009\226U@\037\003\003\300\251\234\242?\300\306\300>\005\003\003@\000\000\000\000C\217\000\276\036\226U\300p\274\302\277\000\000\000\000\000\000\000\000\000\000\000\000\000\000\000\000\000\000\000\000\000\000\000\000\000\000\000\000\000\000\000\000\000\000\000\000\000\000\000\000\000\000\000\000\000\000\000\000\000\000\000\000\000\000\000\000\000\000\000\000\000\000\000\000\000\000\000\000\000\000\000\000\000\000\000\000\000\000\000\000\000\000\000\000\000\000\000\000\000\000\000\000\000\000\000\000\000\000\000\000\000\000\000\000\000\000\000\000\000\000\000\000\000\000\000\000\000\000\000\000\000\000\000\000\000\000\000\000\210\364\263\275i\3652@b\021)\226F\312L\273\000\000\000\000\2511\034\300\007\245\252\262?\207\207\276\201\205,\265\314\212\217\300o\355\032\301\231\373|AU\005\266\222\230Q\300@\000\000\000\000*\242\204\277\021\322\252\300\'\242\243\277X\317\\?\307\253\310\300\332\240H\301K\n\274A\227\223\267\277z\004\005?\246\"\220\242[m\316@0\252\201\3018\252\243@50w\300\003\322/@\241\276\200\301^4\033A\n\200\002\276`\230\004\300R\273\022\277\242\216\274Al\307\303\301\375\3552A\257k\376\300\306\215\013\300$\343m\301\260\207\233A\'*P@$\364m\277\313(\226\277\004\014\237A1-\223\301\231$;@i>\034\301l\217U\300\307\202\376\300R\201nAw\225,@-h\016@\224\212\237\300\241.-A\333\2204\3010\225\325@k\256\t>\230Y\375\300\236M)?z\203i\277\305\352\002?\326\263\250@\262i\000\301n\211\207@\230I\006A+\217\026\300\325n\014A\\G\223\300w\304:@\367\034\336?y\334\017A<\233VA\367\342?\301\2604\267\300\204Ag@H\005\211\301\224v\260?\355\254\220\300(\362^\277D)fA\r>\270\276\317\262\233@\314\206\214\301TP\205@\355\235\332\277t\274k>_Bz\301g{\322\277H\243\265\300\301h\216A\366\323]A\351\226\303@d2\347\301\204\r\031\300\021r\223ATI\372\277}c\236A>\346/\301\237\213QA\311\336\234@\236N\210\300\304\214\233@+\240\203\301\036\245\031\301\316k\037Ab\0015\301(\335HAZ\324\367\300\326\257\035\301\344_\350@\347\241\352\300L_\210A\0024\213\301\222\263rAd$\256@W>r\301@\360\016@1\265\326\300\262H\260A\344\300\035A\237\243\253\300a\220\241@F\252b\301X)$\300\303S<A\241$\261\301\000\256\360\300\311j\005@\302\247\322\300\204\312\302@[n\346\300\034\326BA8\332}\300\006\234\270\277\352\177\006Aa\247\002\300>\352&\277> \264\301\360\031)\301\n\375gA\020\313\231\277\234\325e\277M\217\362@^T\240\300\316o\313Af4\325\300dA\005?^+\220@\3432k?\372\252\'A\275-\014\301\023~4AD\361\213@\345J\313\300\223)\217\301\253yn?\257\360\r\301\272h\200@\325KqA\033\376Q\301\023g\200\300\250\305GA\210\202.>\322\362\276\3015\014rA\236\357?@;\271\265\301\362\217!AhU\014\300C\242\031\301\235f\022A\230\021\003?\242\350\316\300\374\254V\301!\345\001B\362;\n@\031\326\304\301<_\306=\345\no@I^\334\276\254\254\020@\261q\257@^Z\375\277rQ\245\300S!\tA:\216@A\363\311\220\301$\334\017\300wg\257A\256\327<@C\352*@\305\344\310>I\333!\300\234\235I\301\371\273\336\276\246\035\377@\212\t#\301ZN\363\300cd\230?\266\341\001\300q=\rA\265h\202A)\310\316\2777CQ\301I\001\352\277=j A\225\226\250\300\364\327\202\300\037\020BA \336\301\277\226\2266@]\343=A\345\364c\277\320\010\267\301\235\333\312\300\236\030bA\347\277\000\277\272qL\300\260h\366A\373\0332\300\037\000\257\300\264\313\001A &\306\276\372\313\025\3019\037\005\301\"Q\016\301\345\344d\276\344K\333?\230k\203A&\'\310\275)9\303?I\334\244\300\316\256\000\274\341)t\300Xu^\300\235\233\334\300\000\000\000\000\307\306\306>\021\021Q@\000\000\000\000\256\236M\220\213\001}\276\000\000\000\000\000\000\000\000\276\2667\277#,,\300\000\000\000\000\000\000\000\000\000\000\000\000\000\000\000\000\000\000\000\000\000\000\000\000\000\000\000\000\000\000\000\000\000\000\000\000\000\000\000\000\000\000\000\000\000\000\000\000\000\000\000\000\000\000\000\000\000\000\000\000\000\000\000\000\000\000\000\000\000\000\000\000\000\000\000\000\000\000\000\000\000\000\000\000\000\000\000\000\000\000\000\000\000\000\000\000\000\000\000\000\000\000\000\000\000\000\000\000\000\000\000\000\000\000\000\000\000\000\000\000\013\375\237\204\000\000\000\000\000\000\000\000\376\215\205>\000\000\000\000\000\000\000\000\000\000\000\000`\352\361\276\3327\177\275^C\214>\000\000\000\000\315\337\212\277\334\035\236\277\0208\255\300\000\000\000\000\2253\277@\000\000\000\000\016\314\024@ \305\305\255\027\021\021\277\201\205,\265*P[\300-|g\300\311\n\261\300\265h\334?\313\241\017A\261\304N\223\330\362\271@\001\205\350\300\276JU@\302\341\235\2771\246\007\301\353\350\307\300\350\247\246@\333\3059\3002q\235?\303\004\303\224\207\326\215\277\312\351Y\301f5\331A\024\243\032\301\240C\020\301B\266c\277\377\375\214A\t\226\025\301S\212 @[\265\316\224l\032*\300C^8\300\2537eA\246@.\301\rd\036\301.\302\334\300\265\365\354A\003\031-\301\357I\266@\237\031\242\250\300\211\007\277m\343\361\300\322x4A\363\025Y\301\202\250\244\300\276p\317\301\303\223>B\367\244\340\301\356%\020@\"m;\277<\013\217A\226\277|\301\314\316\253A\203\177\206\301\206.\233\300G\302\r\302\036\357%B\361\324C\301\265\\OA<\214\202\277\366\273\246A\255J\230\301\251\311aAJ\345\315\301\020\026\004\302\334\272\234\301\266\257\347A\245\002\tA\n\255:AKe#\277\332\233\036A\352\303,A\337_\021AF\005\300\301\362U\273\301\210\255\250\301\2054\206A\201\217\010\301\t\367\225A\304`\277\275m5\306A\020r\330??OrA\264Q\020\302\247\\\210\300\242\377\327\300\031\\\006B\3435\245\301e\003vA0\3170@\362\347vA\335\264 \301\n\006*Aq\342\025\302\354\232\362\300r\300n\300\366W\305A\315`\263?e\350\215A\270\310\257\300\013\252]@\030&\256\3000(GAx\360\026\302X\024%\301\377\253\326@\311;RAn-\314\300\024\267\332\277>\263\254\300\260\330#AOn\037A}\342\253A\350\035\014\302\003\263c\301\177\371oA\345\273S@%-\221\300\214\325\257AR4\222\300T%\205@\306b]A\244=\251=5\275\232\301Q\261\270\301M\002\034A\317\227CA\016zK\301>7?A\210\266]\300\275g\270@\303\021EA\363[\323@\326\230\356\3010\367P\301\347\376\354?\003\023SA\302% \301\262\242\213As\013\177\277\215k;\300\331\354\230A{\220\246@y\'\350\301\372\"\001\301l\324\206\301\360\235(AS\242\306\300\022\003\211AD\022\345\277y\237VA\263\300#A\375\t*A\221\221l\301\365\243\354\300\230\303\261\301Ov\242A1\301\240\301:\364\235A\342!\376\277\221\3532@\027\006\346@>\217\203A\342\232\201\301e\035\362\277#\246\206\301\035\212k@\031\327_\301\354d\212A\0300\237\277\312\253\326\300\207q\024Af\335\324A\303V3\301\344\300]\274\277\201W\301\263\304a\301M\375\207\301h\327\271A\332oS\276\030\355n\277\032\242*@2Z\370A\021\031\247\300\006\331\215\271\313\311X\301\"\345\307\300:\305\235\300\023\274\332A\303.\005\247yy\312@\351-\003\300\370\345\325\277>\266\357\277~\233\247\212\334Y\371\300H99\277m\031\242\300\367`\234A\235\0319\275W\346\202\300\311o\343\277\036\342\350?\tf\273\242\000\000\000\000\360\243\215\277\000\000\000\000R@w\300\252\250DA\235\0319\275\014<\215\277\236\336b\276\002p\276\300\000\000\000\000\000\000\000\000\232\2319@\026\363R\275;BJ\276\000\000\000\000\000\000\000\000\"\230>\256\'\003\003\277\340\350\010\300\000\000\000\000\000\000\000\000\336\335]@\000\000\000\000u5Z\220\000\000\000\000\000\000\000\000\000\000\000\000\311\234\034\277\254\2666\300\000\000\000\000\000\000\000\000\000\000\000\000\000\000\000\000\000\000\000\000\000\000\000\000\000\000\000\000\000\000\000\000\000\000\000\000\000\000\000\000\000\000\000\000\000\000\000\000\000\000\000\000\000\000\000\000\000\000\000\000\000\000\000\000\000\000\000\000\000\000\000\000\000\000\000\000\000\000\000\000\000\000\000\000\000\000\000\000\000\000\000\000\000\000\000\000\000\000\000\000\000\000\000\000\000\000\000\000\000\000\000\000\000\000\000\000\000\000\000\000\000\000\000\000\000\000\000\000\000\000\000\000\000\000\000\000\000\000\000\000\000\000\000\000\000\000\000\000\000\000\000\000\000\000\000\000\000\000\000\000\000\000\000\000\000\000\000\000\000\000\000\000\000\000\000\000\000\000\000\000\000\000\000\000\000\000\000\000\000\000\000\000\000\000\000\000\000\000\000\000\000\000\000\000r\2600\275\251\350\005\215\260\307\027>\322\215\303?\330\256^\232\206\014_\206!\177\334\300\201\221~\276\\3\260@\033\205*\246k\206\006\276\031\321\341\261%*@@\004\211\334?\357\027\206\247\026\242\300\206\365\274\220\301[\220!\300;.\200A\326+\264\277\347\020\014\277\226\316\220\275\212_\202@\222\333Q\300\357`\235\300Y\220\273\206>\324h\301\235\305\255\300l\013\321A\014k\006\300\345\205\016\277\256W$\277i\255\201@\023!+\301$8\202\301\000\000\000\000\205\234\212@\263\356\203\2768*\261A\251\"\001\300cI\200\277M\005\227\277H\273\366?k\213s\301\001,\236\301!|\330\274\345\375$A\242\240\301>\340\317\324A\017\n\317\300\217\320\222\277)\200>\300\366\317\366?\002Z\302\301\362\324!\301\367{\204\276=\316\246A\266m\001\301\221\221\364A\"\245\355\300\n\275\330\300 \023\227\277\336\3231A\251Y\340\301\246r`?E\247\305\276\370\205uA\312\341_\301s\272\363A\375\231\240\300_g\233\300J\202\344\300\205HbA\341D\360\301:\006\213A-1[\277\346\017\003A\031e\231\300\203\314OA\266\265\"\300\233)\000\301\014\021\020\300\231\243\030A\014\210\335\301U\355oA\3323\261\277\226\237\220\300%cb\300\3324\313A\276\233\336\300\242`Z\3014f\310\300\322\304\'AUX\362\301\r\031\003A\030\302\265\277V\222\250A\021Vj\300\305\356\263A\013\217\032\301\"\177\365\300\203\355]\300=\243\024A\362)\"\302N1\277@\301\222C\277V\252\250A\222\303V\301`\267\034B\366o\307\300T\226\367\276\243o\266\300f\223\010Awi\013\302\371\336\211A2\014t\275\273\006\300A\362\"\250\301\314\226\224A\345\252\203\300\025\025\005\300{\275\013\301\t#\207A(Y\007\302\206^\351@(Z\r\275\036\312wA%MS\301\360\253\262A:\243\377\300<\311\303\277\347\276\033\301\204\265\211Av\224\t\302\246\307!=h\232\315\273\247\362\254Ax\300\201\300\246\261\226A\337\024\231\300\220\037\247\300t\276\247\300\214:\'A\001\003\017\302\024\201\017\301\203\202\202\276\217\330\251Ae4\037\300\013>\370A\027+&\277QGE\300w\363\364\276/\262y@\272\346\343\301\270\340\267\275\000\377\376\276:b\212A\254\205\354\300\214\321\233AP\340\204\300\376\334\245\276i\204\276\277\206\354\257\276\200\036\204\301su\362@\234\233\233\276\263\221\225\277\035\206]\300\373p\241A\'-\226\300\2160\330\271mZ\331\277\004\342\244\277\205\206=\301\227\364\251@\302\300\300\273\312Z\324\277Y\342d\276\203\321\200ALW*\300\222\317\231\270\200SE\277\306\304D\276Fp\342\300\205\300\350?\000\000\000\000\353\272\316@\032VS\266.\004\033@\351\375\336\275\000\000\000\000>\337j\221\376A\033\260\036\214W\277\343L3=\000\000\000\000\324\335\023\276\276\202m\222A\227\206?\000\000\000\000\000\000\000\000\000\000\000\000\000\000\000\000q>\027\276-\t\311\262\000\000\000\000\252Q\213\274\000\000\000\000\251\250(>\000\000\000\000\000\000\000\000\000\000\000\000\000\000\000\000\000\000\000\000\000\000\000\000\000\000\000\000\000\000\000\000\000\000\000\000\000\000\000\000\000\000\000\000\000\000\000\000\000\000\000\000\000\000\000\000\000\000\000\000\000\000\000\000\000\000\000\000\000\000\000\000\000\000\000\000\000\000\000\000\000\000\000\000\000\000\000\000\000\000\000\000\000\000\000\000\000\000\000\000\000\000\000\000\000\000\000\000\000\000\000\000\000\000\000\000\000\000\000\000\000\000\000\000\000\000\000\000\000\000\000\000\000\000\000\000\000\000\000\000\000\000\000\000\000\000\000\000\000\000\000\000\000\000\000\000\000\000\000\000\000\000\000\000\000\000\000\000\000\000\000\000\000\000\000\000\000\000\000\000\000\000\000\000\000\000\000\000\000\000\000\000\000\000\000\000\000\000\000\000\000\000\000\000\000\000\000\000\000\000\000\000\000\000\000\000\000\000\000\000\000\000\000\000\000\000\000\000\000\000\000\000\000\000\000\000\000\000\000\000\000\000\000\000\000\000\000\000\000\000\000\000\000\000\000\000\000\000\000\000\000\000\000\000\000\000\000\000\000\000\000\000\000\000\000\000\000\000\000\000\000\000\000\000\000\000\000\000\000\000\000\000\000\000\000\000\000\000\000\000\000\000\000\000\000\000\000\000\266\274<>\000\000\000\000\266\274<\276\000\000\000\000\000\000\000\000\000\000\000\000\000\000\000\000\000\000\000\000\000\000\000\000\000\000\000\000\367\354\354>\000\000\000\000\370\354\354\276\000\000\000\000\000\000\000\000\000\000\000\000\000\000\000\000_bb\277\000\000\000\000\000\000\000\000\371\234\036>\000\000\000\000 \273:?\000\000\000\000\000\000\000\000\000\000\000\000\000\000\000\000\317\320\240\300\000\000\000\000\000\000\000\000y\016n\277\000\000\000\000\236\222\276@\000\000\000\000\000\000\000\000\000\000\000\000\000\000\000\000jN\256\300\000\000\000\000\000\000\000\000m\267\210?\000\000\000\000\221 \214@\000\000\000\000\000\000\000\000\000\000\000\000A=\037\254C\233\n\300\000\000\000\000\000\000\000\0008EH\276\000\000\000\000\227\037\027@\000\000\000\000\252e\332\264\027{\367\276\331\206*\257\326x\257\300\260\366\344>\000\000\000\000\275P\212@\013P\361\277\303HE@\000\000\000\000k)\240\264h\202\004\276M\3701\266\340$L\300*\t\200?\000\000\000\0005\355\031@\036\210_\276k<\007>\000\000\000\000\262\271T\277]\366M\233\036\033\265\266>D@\300Mq\021?\000\000\000\000\334\3220;N\032\016\277\315pt@\376\374\374\275\333\177-\277\002\251\033\276b\016X\265V\340\027\300\233<\007\276\233]\310\274\203W.A~\314\347\276\233\276\336\300\007\007\007\277[l\213\251\266[\312\276\037\230\343\242\\\006\"\301\006yD\276\330<\202\275+\253SA\201\200\200\276\3158\326\277\325\323S\277:\333\244\211i\016\371\274\221\220\220\274f\007\256\300\260&\203\235\342J\240\273\013\004\023A\306\305\305\276S\360\036\300\240\237\037\277\000\000\000\000\365\025T\242\020\020\020\277(\271z\300$\031\213\257\000\000\000\000\313\026\233@\306\330\330\276SJ.?7\016i\235\342\221d\277\272\213>\242\325\324\324\276\246\343R\300\375\277}\257\000\000\000\000A\353\002A\346\322\311\276\363\317K\300\354\352j\276\202\3649\300\304M?\221\010\004\242\232\364\3069\300\3508j\263\000\000\000\000\330i3Ax\214\311\2739l\245\300\377\375\375\276\257\360\367\274\007\222_\274ks!\252w\325\223\277\013v\267\276\023\357\204\206=\351#A\277\333\353\270\226\016\003\301\203\202\202\276\000\000\000\000\305(\t\277ks!\252\274\216\343\245;\014\341\277\023\357\204\206\326\030\003@ h\315\247\'\037\000?\356\253t\277\000\000\000\000\255\242g\276\331\245\333\211\035LF\277\355\346D\277\000\000\000\000\361\312\337?\262\177\351\234\3001z?\232\252D\300\000\000\000\000\356\343g\277\000\000\000\000\021d\037\300~Z\231\263\000\000\000\000$\375\236@\244x\321\224\276\032\300?\336\2413\277\000\000\000\000Y3\275\222\000\000\000\000\333\225\021\277\'\022\214\262\000\000\000\000XA\n@\375S\277\223\240\315c\277\000\000\000\000\000\000\000\000\000\000\000\000\000\000\000\000\000\000\000\000\000\000\000\000\000\000\000\000\000\000\000\000\000\000\000\000\000\000\000\000\000\000\000\000\000\000\000\000\000\000\000\000\000\000\000\000\000\000\000\000\000\000\000\000\000\000\000\000\000\000\000\000\000\000\000\000\000\000\000\000\000\000\000\000\000\000\000\000\000\000\000\000\000\000\000\000\000\000\000\000\000\000\000\000\000\000\000\000\000\000\000\000\000\000\000\000\000\000\000\000\000\000\000\000\000\000\000\000\000\000\000\000\000\000\000\000\000\000\000\000\000\000\000\000\000\000\000\000\000\000\000\000\000\000\000\000\000\000\000\000"
      }
    }
  }
}
node {
  name: "Variable_1"
  op: "Const"
  attr {
    key: "dtype"
    value {
      type: DT_FLOAT
    }
  }
  attr {
    key: "value"
    value {
      tensor {
        dtype: DT_FLOAT
        tensor_shape {
          dim {
            size: 10
          }
        }
        tensor_content: "\372\214\372\301\212\364\261A\274V\372A\2253S\301x\360!\276\313\275\256B3G \301\017k\034B\363:\320\302\277\235\251\301"
      }
    }
  }
}
node {
  name: "MatMul"
  op: "MatMul"
  input: "Placeholder"
  input: "Variable"
  attr {
    key: "T"
    value {
      type: DT_FLOAT
    }
  }
  attr {
    key: "transpose_a"
    value {
      b: false
    }
  }
  attr {
    key: "transpose_b"
    value {
      b: false
    }
  }
}
node {
  name: "add"
  op: "Add"
  input: "MatMul"
  input: "Variable_1"
  attr {
    key: "T"
    value {
      type: DT_FLOAT
    }
  }
}
node {
  name: "Softmax"
  op: "Softmax"
  input: "add"
  attr {
    key: "T"
    value {
      type: DT_FLOAT
    }
  }
}
library {
}
