node {
  name: "data"
  op: "Placeholder"
  attr {
    key: "dtype"
    value {
      type: DT_FLOAT
    }
  }
  attr {
    key: "shape"
    value {
      shape {
        dim {
          size: 1
        }
        dim {
          size: 32
        }
        dim {
          size: 32
        }
        dim {
          size: 3
        }
      }
    }
  }
}
node {
  name: "conv1/weights"
  op: "Const"
  attr {
    key: "dtype"
    value {
      type: DT_FLOAT
    }
  }
  attr {
    key: "value"
    value {
      tensor {
        dtype: DT_FLOAT
        tensor_shape {
          dim {
            size: 5
          }
          dim {
            size: 5
          }
          dim {
            size: 3
          }
          dim {
            size: 32
          }
        }
        tensor_content: "2\033\304\274\307\254<\275\016\354\253=\2520\002=\330\017\005\276\033\203\021\275\300AF=%\310\004\276ft\206\275\250\374;\275\253\301\214\2754\274\275\274TS\370\27487p=`\200\337:h\014\351\275\031\255D\275\375\2461\275\010\210\246\274_\330\266\274\373\373\222=\265\025\242\274\333(d\275\002\255\222\275k\210\221\274=\203\234\275=\301\264=t5\206=\003\023\033> \303\312<d\335/\275#\274w\275\005\301H;\004\320\370\274\372\207\325<\263\211\253=B\201\n\275*\305$=\351\311.>~\261#=\307\2303\275;\221\244\274\206t\221;\024[\n\275\2724\301\274\260\002\"=\371\035\022\275M\001e<\263\302\200\275:\224`\275\304K\247\274\247\352u<\177\266\277=\255~\220<\237W\001\276\317\3314\275\027E\002<W\271\335\275\240Z\230=\371\013\265=\346\264\207\275K\342\305=f\221\247=.\233\037\274\317%b\275\337\234M<5l\364;\2249\216=\250\260\311<\022A\335;\000\324C=\327\'\244=\203\3634\275\237+\373\274\261\261\032<\325P\210\274q\024\362\274a\355<=\324\200\234; h\336=\241\233T<\367\301\205\275\177:\264<\257\211i=:\213\237\275k\000\232=\245\031\233\275B27\275\004A{\271\260\177\034\276\230f\322=\311g\222=\3379C\275\327\030\317<~q\344\273\017\317]\275b\231\006\276\274\373\n\274\223\330\032>M\0214\275\202\375\376\275\237\221\254\275n!\023\276/\270\022\276\213\214\362\274I\247\330<\300\337\237\275\206\304\205;\217l\300=\357\021\234\273\004-\335=\224_\316\275\304\254\313\275m|t\275\037\220\221\275\3250\311\275\251\356\007>\272\253\206<CS><T}K=\373\3166<=\360b\274\010\373\335=\010U=\274\245\254>>\337\326\020=m\327\260\275\331O\221\275\355P\362\275g2\267\273\202\201F=\277)v\275%\320\020\275\303\210\246<\264k\251\275]\026W=\275\320\215;\340\016G=\200j\004;~;x\273\346\221e=\234\350<\274\220\302\225\275 \202\371<\335\316\256\275\337sl\275Y\366\264\275\243\025\'\275\025-\316=\202\003\262=\271\371\342\274\203\264R=]\255\020\274\344\215o\274\307m\324=\034\033\';5\246\333\275\267\264\225=\345\346\306=1{r\274\257L\014\276F\236:=\023)\317\2739\373<\275\244Zw<l\270\330;\343\325d\276\007Z\326=S;\237<\253\235a=\022\341\373\274\365\340\270\274\273Y\351=\330\005\345<[\243\303\275\224\266\007>\356\267\226\2751\'\204\275i\315C\275\352i\270<\234I\007\275\320\307\030>\210<\213<\002\253\274=\232%\212<\376\266\326\274\201$\372=g\2334<+\311\215\275\307\236\241;F\223\221\275<\202\036\275\230\253\351\275\3530\003:\223\0034>Z\210\267\2756\016\000\276R\177\315\275\027!c=\036A\026\276\274\253\213<\324d\223=g\025\355\275\267\016\240<\372\003\211\275\326}G\275\236\0362>\013U\241\275\010\245\306\275x\0161\275\024\352A>f\277\257\275q\223\261=\t\377\005\274\214\214\252=2J\341=%\315\254\275\220\t\305\274I\243\226=w*\226\275\340\215=>\216\315\017<#9?\275\330\036\212\275|\303\271\275e\345m\273$\244a=\3162\272\275\234\360&\275\233p\245<W\337\020=W\213\005=\230W\\=\350\333\325=\202\311\014\275\027\006{<2%%\276Ag$\275j\337\232\275\021J\365;t\305\200\2750\267\364\274\375y\016>\340\347\007\2758o7=,\243r=\031x\251=^\031\017=\376\365\276\275\350\nA\274\301d\255=\201\243d\275V\232\315\275\\\353\364<\210\265\024>\001\275\\\272n\255\355\275\227\224a=\003\'\026\275]\317\303\275\201\260\265<?\223\267<\tI\243\275\003\354\241=g\332\225=\300_\306=\317\202\257\275F\333J\274\232\003\324\274\320Q\356<6p\006\276\245l\304=\221\363\206\275\370[|\275\376\0342>\310\200\367<\023\354\014\275\242\262\341=\031\310\371=3X\326=ns\007\275\227i\300<n\247\327=*p\027\275\316\324U\275\235\324g\275\276\357\227\275\252\335\346\274\321\317\335\275O\214#<)\264.>\327\314-<\273\306r\275 T\225\275o\340\231=\377\233\300\275w\345\250<*>\332=5\355\r\276\304\265\004\274q_\216=\217i \275[d\027>6P\223:u\237\204\274\272O\325<W\035U<\253\372\277\275cHo=[\2511\275\324\365\036<=KC<\336\204\273=\247K\271=q\270\214=\211\202\215\275\257\177\316=\336\360d<\231\263\213\275\303\'\202\275N0\213\275D\375\032<c\267+=Q\266\020=%\t\022\272\243\221(=\325\260\302<\251\300==u(:=\245\036\016>\273\234\265\2753\303G<\032?\223<\234\363\315\274\271@d\275\006_J\274\351~N<\275\337U=Z\273L\274\314$b\275\344u\370<\264dK\274\215\216\270\273.f\240\275\177\267\237=\310\250\350=>\303\202=\315#\177\275\2241\220\275\003\003 <H\260\323=\204\354\221\273zi\313\275u\361\213=\207=\251\275U7\361;*#\206=\035tX=\263D\215\274{\342\220=\337\036\002=B\270\302=\372\234\000\276\263\0001<\351\301y=\373\254\177=\265\243\376\275\235\277\217<}\025?=\232s*\274q\317\371\272\345\220Z;0\237\212\274\013\261\010<t\320\253<\035\260\305\274\320\200\377=Q%\005>\250n\244=\032\302^\275\352\235n\274dp\252\275\352\034\252\275\307\177\203\274`l\263\275w\021&\275A\242\341=\305\225\362;\277vV\275\327\311\267\274m\221x<N\361\213\275q\221\356\273\017\217s=\030\017\023\275#&K\275I\373!\274\243\'C\275\027\020z=\352Y\217=.5\036:\375\247D=\246\370\337\275\211\311o\275G\r\030\274R\211\304\273\'\006%<#b\306\274\022\250\260\271\235C\250<\3676\312=\nq\245\274\023b\211<\305\211\243\274\366I\366\274\207\212\372\274h\376\031\275\376`5\275\240\301U<<fe=\212\346\030\274\243\344j=\206\000\235\274P\3144=E\237\036=\355,\361=\270\342#\275n\203\007=a:,<\027\367<\275\350\275\221;\227\352\257\274n\031\226<p\372\252=d\353\221\275\235]B\275\337\317\317\274\323?\233\2747\036\265\274\206\203+\275\320\204+\275\267(\231=s\322\337=|T\263\274^=\252\274\241\2429\275\312J\213=S1\366<\326WU\275%\310<<\035[\300\275\220Zh=S\375d=\344\206\034=\375u\235<ghX=\263\032\323\273\3456?=\311\270\213\275!\016<=\312\2314\275\013\322\370<Y4\216\275\251\246Y\275\303\231\225=:\266X;.;\274\275>1\220:g\322\'\274\271\354E\275ln\361\274\320\376\326\274c\301$\275|\004c=&F\r>\332\'\024\275U\005\230<\244\216\007\276\350j\035\274_\014\215<\335\242\234=\335\276\035;\222\262}<\251 \346=\267\267\265\275-}\213\275\227s\031\276\263\307(\276\001\024W\275,\340\217\275<\351\334\275,\037\206\273\272\377\324\275\235\366\007=\341~\200\275\247;\001\276\275\273\020>\023\367\316\275t\350><\334b\230\273\032\217$>\244\247\221\275\t\231$\275cu\034=\3276\025\274+N\033\276\376\366\315=\226w8>\000+\025>\244Ah=Z\201F\275\362F\021\275\212\244#>\265\201 \274\314{=\274\253\252\021>t\033\032\2752wL=\024\004\230\275\240\314\323;\351\223M\274\242\226\201\275\014\354>\275\337\223\325:\037+\220\275\351\224\350<|X+\275\034\177\367<\321}\001>A\234\251\275\222\253]=b;\371<\240\320\001>\313\313\010\275M\035\242\275\365\303:=\002\3364=6\003=\276\244\211\234=\374\3525>\202\264\265\275\354\342\325=\325\340\003>\032A\030=\333\016\252=\355\2141=`\371\235<S\026\323=\354\373\326;\003\017\200=\354+X\276\007\273\265=\232\332\351\273`r\244\275\360\036\324\275\332\3769<\264/\323\275\005\235\204=\260\024\200=e4\375=}\343;>O\233\304\275\033\210p=`\246C=r\000\217\275\334\032\003=\212O\032\275\016b\356=\035\253\271<\007\242i\276/v\252=\246\314\">:\010g\275\265\376\022=\204\204y\2754^\"\275g4J=/\020\014=\211\215(=\226V\037\273\001\212\344\2756u\337\275\3170\r=\2266Q\276SVF=\316\223\377\275\330\236\361\275\334\314\002\276\007\246t>(\355\371\274\361\253X=\352\256\331\275J~y>\357\274\217\275\254\301i\276\245\232\262\275W\367\370=L\336\021\275\177\271\007\273\217\324T>d]\026;\r\317\325\275\272\303\027>\225j\205=\375W9>\212\212R=#~\333\275Z}\225\275\371\345\024>\347D\242<\032,\325\274`\357\311\274\352\247s\275\363\032\016=^P%<\223L\025;@@\274=S\371\352\275&\346U\275\322\344\336\275\305\326l>4`\310\274\re\276\275\001\336#=\376\356~>\261Pc\275\016\303A\276S9\001\275G\255\215=\025\375R=\211\327\227\273\nR,>Drm\271\343\320\342\275z\033\366=\243<s=1\010\001\276\231\216\213=\352\245->\302\365\201<u.\253=\251\233\243=\257\001\246\273P\347r\273\327\300\224\274\364\204\220=\031\360\001\276\221\334\342=\325\035\355=E\r\211\275L\304\007\276\300\224\377\275\375\363p>\255>P=\351\233\r\275\330W\003>\210\304|>\017\"\204\275bl \276CW\216<\207\031f\275\033\331\353=\234O\331<$\307\201>62F<gK\372\2759\025\354=\321\320\242=Y\031\224\275\014\367\035;vt\363\275G\225E\275X\315\217=gj\017=s\326\276=\372\256E\276\265\300\351\275\257\257\005\276\354I\240>\007dG\276\246\217s=\220M\203\275\326h\003\276$v\211\275\267\314\216\276\326\271\210\275\376\000\022>\264\013N\275\253\302{>\240\222\275<\232w\260\275\231\235\216\275\\{U<\331\t\006\275Y32=\000r\035\275\373\014R\276\0276^\273,\371\'>,\231\210\275\330\343.>b\000\222<Rs\234\275K\352\254\275!\320G>\n\277+<\3704s\273\214\325X\276\023\355\223\275Bu\222<i\214w>\207\231\t\274\332b\305=\033\030N\275\311\273\224\275\021\354\206\275<\372\253\276?\261E\275\222\030\r\276\276\257\371;\340[\210>\240VD=\000\027\027\276\261S\276\274p\266n\274\343\303\203=G\004\244=\031s(\276Z\037B\276BD\314:\204M\017>\332\345\212\275h\271\362\275f\217\371<\344Yb>L1\201<\022;\340=b\n\230=.\204\234\274\263*C\276\355$\001\274\017\376\203=\303\321?>/ \322=\374f\346=z>\004<VM \276\235\234\310\275\312^b\276\353\204[=\351\276\362\275\253\031\215=)I\211>m\347 <pE\300\275\376B*=\037\3238\275jP\350=\245\206\316=\241a\246\275\352C\030\276\271<;=\337\265\005>\327\257\027\275o\"^\275\"\203f\2759_\003\276\3000%\275\013-C=}\000\r=Q\215\002>\335No=\305O\265\2758\352\341\275c}[\275W\331\t\276\355\200\027\275C\277\251;aA\244\274\346\325P=\036}I>\246\"\207\275\003\2146>\220fO=\010\273\032>\366f\255=)+\306>\243\000\257\275\340r\036\275}g-\275\234\322\342\274\235\360\350\275G\304w>s\t\021>\360k\025>eA\353\275|\373\260=\205\357\237<\250?\277\275_m\314\275Y\3319>\331\030\007<\200X\206<\272~V=\356\374\177\275\265\375\323<f\267\275\275$V\260:%\236C\274u\213\217<6\331\037\274\001\002M=!\374/>\204\324?\275a\310\303\275\354\310\034\275\026\003%>-^\365=po\247>]e=\275\233\205\331\274\001e\305<\"TU;\320cV\276\340\363o>z0!>\316\354\337=\347t\t\276\352\272\241\275\270\342\232<\361\2425>+\351F\273X\273\273=\361\341{=\306\214R\275\236\337\017=\362\2057<yG\226=\331\2560\275J\210\314=\312\365\340\274\240jK=g\244\205\275?\222\r==\233E>\305\366y=@\020\017\2762\365+\275W{B>\361\"c=W\353\250>,\344\260<\204t\022\274\235\035|=\230\240\220<wj+\276q\237\203>\364]M>\301\027\271=\355 \373\275\025r\036\274\266K\230\275D\204\024\276\023i\"\275\265\327`<n\225\024\275\302\262\233=\346\022\311=nO\231\275\305;R\275\267{=\275\002k\310\275\257Bh\275<\255\311=\266\321\310=A\331\246<\247\275\206\275G\364r\275\321\330\341=\335w\005>\235\366\276:\333\343\036=\025+=\275\220\020\200\275\253N\273\275h\356\331\274\314\217)\275[:\205\274\205\021\213\275P0\266=\257\037\314=\223\371y\275\237P%<\234\307\255\274\367\321a\275\265\372\255\275\224\375\t>o\027o\275\017O\270\273v\243\265=\370\234\210\275i\304,=\335\0025\275\336\351r\274\363\376\307\274\351\225\013>q\375\215=e\232~=3g\030\275\246[L\275 \332\005\275\344\367\r\275\317\t\231\274>\235\234=\022\355b\275\241q,\275\262\010]\275\366\3009\274\222\272\233\274\272 \225\274S\341\344\275\346\366\016>\303\242\260=\003\346\247\275\371k\243\274\365\3006\275\005\322\367=\322\030`<@\342\220=N\206\023\274\014G\240\275k\265\234=c\217\3479EeM=\374\001?=\354\276-=\210f\245\275\007P\362=X2\006=\036\003\240=\025>\254\275n\2649={n\345\275po\343\275\303K\350;\3001m\272\261\212\302\275\227\273\227<\314\237\247<Q7K\274ZV(\275\200\313\360\2743D\371\275-\311\033>kp\265=\014\017\261\275\275\246\306<\3409\005\276\303\234w\275\177V\215\274b\346\2708\022-\235<\254\307/\275^\200\337=\025E\222=S\035\333\275\354\3143\274\204\301\262\275O8p<\375\023\252<\373&\275\275\214\213.>\275\355\375\275\033\237\374<\340\330\003\27685\n\276y\016\372\275{\025\205\275\247\010\313=\361y\026=\006\214/>\003\217\325\275\375\014m\275r\256(>9\227N<\330_\034\276\365\216W\275\235#!>\206\244\301=^\024|<\221\220G\275386\274\221\030\252=(\032\224;h\377$\275\340\362\020>\303;\027=\232\235\001=C\363\026:y\353\361\274cc\225=7\347#<,\363\032\275\274\307\025>te\215\275H\263#=\002\226\351;\253\244A=X\301\034\276\233\224\020\275G+\010>\013(A=\325n\372=4x\256\275E\225\245\275\031o\367=D\260\252=2\357/\276b\2525\275\014\031#>\0229\224\275\004I\224=`A\r>\241\321\032=\2416b=\253[R=\304\024\200=i\260\264=\'\342\221=\027\006\213=\010!\245\275\017\344\323;\254\265\221=z\010\031\275\224z\351\275\253\224\017>;\211\006\276~\021\273=\026K\026>^H\032>[5\361\275\235\332\202\275n\375\260=-\264\372<\204?<\275\3024\225\274\325\321)\275\241\247g>\237\017I=B\026i\276qB\353\274K\311\021>\236\222\253\274$\336\203<U\266_\275H\337\t\275l\034\213<\002\033 =V))\275LK(<X8\377=\226\372\346\275\304\205\245> u\357\275P\347\221=\033R\332\275\211E]\275P\240\253<\267\260\225>\267\315\004\275\351\363e\275\263W\352\275\362\3776\276\004S\365<l\261\217=\327y\312\274\016\021L=p\030\233\275/\363\260\272\375\335l\275\014\227\t\2730\010\006\276b\236>\275\301.\250=\000\r\365=\300:\231<\027)\366\275\300\034X\275\017\261\375=\334\270\276<r\275\211\2750\214\257< \367\247=]\241(=c\360\210>H(u\275z\272\000>\025/\346\2750\363w\274_8\255<3\242\244>\374\320l\274\322k\333\274\013\312\t=\362\267T\276P\341a={d\014>P>Z;\353\325\016<_fO\273N\256\371;S\207\r\276\220\275\356;\244\236\364\275\370\374F\275?1\244=\350\345\333\275\344\031M=\026\221<>D\r\025<\324\025\266={\373\212=-\212H=\250\021\037=\022c\357=m\202\323=\276\204u>\271\371\301\273\373\343\010>d{\252\275\020\333\276\275\267\332\375\272\004\251\221>>\320\224=\242\r\301=Q\002\375=\266J]\276H\023\274<2\206\372=\330k\314<\323\2229\275\211\237\202=\362M(=\nF*\2755\270\315\273\032|\025\276&XY\275\007\200\375=ZG5\275yh_:\254\331\002\276\324\367h\275!\006\255<\317\205\016=c{\033\275o>\227\276\226W\025>\3633\340\275-\002\255\275\236\352\330\275e\250\224\275\203\255 \276\326m\006;\326FP\2766\224\274\276\3367i\275\343R\237<xv\247\274\nny\276+\356u=\334\221\313\276I*\326\274\205\'\226\275\000cW\275DQ\225=^o\206\276kIz\276\253\032\340\272<\377\023\272#\230\220\274\"\350\347=y\036\365;\361\236\257\275\301\221\207\275\275N\">\375\201@<~\005\271\275\312\237\224\276\255<\267=\261?\037=:r\024\276\264C\201\275\026\024u\274\023z$\276\013\315\254<\325/]\276\002\240\307\276\225\263\n\275\330\306\224\275-\222F\274\332|\214\276\346\263\326=5\313\312\276\370U\371;OB\201\275UB*=\320y\367=-N\276\276\2670l\276.\245n<\271\037\313\274~\233\230\274\025\302\303\275E7\355<,\211\203>e\260!<\322\221\266=\326ca=Y\337\233<F\211~\276\251\030\022>\256f\333=\363\003\257\275\270\224\271:X\334\267\274(M\251\275\021\365N\275\216\275q\276\253\265\240\276W\272\216=$v\217<](\004=C\322\216\276\343\022q=\010~\257\276z\212Q=\212\354P\272\"\235\270=\320\225\022>\271\331\234\276\312\r`\276\\\2628=\310\230 \275\261\034\013=\223\215\311\274\240\277<\275\355\016\372\275\247\273@\275r\272\210<\025\224k=\2562\031=H\261\334<\032\374\371=\013\260\001\276\261\343Y\276\366r\254\275\217\017\350\275U\346\"\276\301F\351=\036\362)\276\2611\203>R\025g\275\212\354\261=^\035\267=\223\225<\276\006\021N=&\231\202\274\364\275U\275\312\004\006\276~9P\275<\271\303\273\247\267\363<C\313\257>\032\245\006>\312\322\n=Y\361\001\276\022\202\265<\260\342J<\315\274\344\275\377\237\275\275n\315\023>\212\241\273<R\211\344\274 \245\312<\337\372\200=I]\314;\277\374U\276yV_\275xz\244\275\022c \276\231\340\301=e\232B\276}\366\205>\t\027\031\275b\230c\275~\266a\275\377\346f\276b\036\311=\271\3174\275\266\307\224\274\323#\231\275\027)\321<nt2=9\272\003\275Cr\252>\227v\'>\020\016\214\274N\331\023\276\273\246\227\275\210\030D<\245$U>+7\3529\0073\217=\021\207i=H\313i<q\321$=O)\002>\252\033\215=v\331\345\275\256PA<\314\005\367\275\373\370\206\275\221\277a=0 `\276@\335{>l|\200=4ny\275B\223\261\275\024db\276Z\217\'=\017\242P\274\231r\026=x\325\277<\212\357\210=\352\334]=\337\343\333\274\201\257\243>\360MM>/\253N\275l\013\370\275\314)\204<\274\352\212\275\255\251\n\276\234M\000\275\342\216\351;\312\315\026\274a<\021=k\205\317=\265\235y=\351\017\201\275fJ\316<\336\016\033\275As\221\272_\226\200\275\037\000\377=\340u\317\274\237\246\301\275i\002\200\275`H\257=\3327\017>\320w\255\275\336`2\274\017\246\">~\027;\275\324\363\350\275(\216\340\274\202\226\320\274/\314\315=\235\261\242\275\355\321\220=8 3=\305.\324\275o\000A\275\334h\307\274\006n\206\275\344I\352\275X\361\330=\315\322\'\275/\027V\274\203\246\257=\270z2\273\rv\320<Z\201)=\342l!\275M-B<FI\330\274\347\230\273=\035\027\271\274\357\262D\275\264\356a\275\272f\003\273\242\201)\275\224\223\024\276p\311?=nP->I\t\326\274\316;*\275\250\236\001<\214\337\335;T\241\367=fw\374\275:\002\001>\210\027\270<\274\220\005\276\262\023\346\274h\212_\275;\233 >S\016\232\274\357Pw=\033V\202\274\256\031\026\274\347-\254=\330du=\355\214$=Q\256\023>\000t\004<\344d\236\275\024Y\302<c\333\233=\r\331\t\2747\212\343\275\245<\331<V\337\232\2754\333\016\276%\024\033\276;\017b\274D\337\022>\340t\n=\251\037\213=\240\033\227<\362\210@\2743\326\255=\221\2551\276r\257\007>\316I\037;:\225\364\275\001\317T=\235\003\377\275\324\241n\275\211h\010\275~L\232\275\261\250\320<~\354\325\275\006Q\345=X\327D=\372M\374\275?s\265=\267\205,>6\305\301;N\035\333=?\363\200<\335\330\230=\350\364?\275\014\213\325\274\013]\007\276\363d\375\275\026\275\202<\033k\225\273\341}\266\275v\246\200=\002\332\324=\314v\254\275j\222\257\275\353\336\323\274\201g\\\273\023c\300\275\0236\027\276\205\210\305=\320J\370<\205\370;<T\316!\275\242\331k=\206o\214\275h\342\377<{\350K\275o\224\010>\216dd\274\327$!<\243r\326<\256\006%=\007S\251=\267t\310=\025\234\025=u\317\214<\337\003\344\274G\300K\274\026\311\224=\363\323\000=\326\007\266\273`\210p<\202\246\305\275\254,D=#\013\243=s,\277\275\254\201\n\276-;\224\275\270\243\227=\264\032\347\275\233\016\350\275\352\343\267=\257\347\320\274I\210\274=K^\267=\322n\204=\004\001\006\275\236a\215=N\360\214=\344\250\233=\222\351\002\2742\003K=\317\245\241\273\t\031\r\275\230\014\223=\235v\361;&\276\251\273E\377-=\220o\253\275u\0303=y\2308>\034\004\034>\364\312\251\272\224\347\222\274\210\241\"\276\374\025\014\274)\212=\275\307R\000\275\371\230\260\275\010\224%\274r\n\020=N\315\036\276\304\315\312\275)0\216=\232\210t<\316\010\351<\352A\341\274\t\004\306<\032^\366\275>!\214<\223\202\273\275fr1=xM4=0N\007\276\375v\260:\236\362M>n\324k\275V\r\263=bx\264=\331E\213>j\024H>\034\032r\275$\036\000\276\270^\252\275q\340F=\251\370\201=H\025\214>^\233e<\326O\244\275\263\317\227\275\271\257\024\275+\372t\276\357\246\252\273\270Gr\275\276\027\035\276`\311\222=\374\003B=E\233\307;E8\337\275\225(\374</\367\361\275\\\361\265<\247\271^\275/\354\366<\260I\342\274q\317\357;C\022\177\275EM\001=X\204\177<\344M\222=p\312\240=\244\375j>\256yK>i\326!\275\371Y\207=\316`\204<\346;G=7W\273=\006$\233>S6z<\3071t\275\032\3176\275\306x\204\275@j\217\276\3713\242;\376\250C\275\037\242\n\276\376\321q=\374\205_\275\305we=\302\370\016>\237C\027=\333\255\255\2759\222]=\006g\273=,6\335<\031\317\206\274yG\234=\350\232\240\274\272\3272\275I\254V\272\204\305r<doU=h\320i>J\2566>4\237;=5\320?>i\216\341=9\222\022\273\203J\206=\257#r>r\255\031\273\245Wl\275\312K\302<n\344\277\274\201\036_\276\211\345\312\274*r\230\275W\225\034\276\256U\303=\2166\207\274\177?3;G\326\261\275Z\221\315\272\024#\010\276~\t\262<\264\345\342\275]SS\276\302\033\362<[.\335\275\345\005c\276V\312\\>\205<\022\276\235SY;G\300\251=\035\253]>\347\227m\276\026\202\\\275\276\270\276\275f\007\310<q\307\313=k\224\273<\350+f=[8!\274h\204S\276g6\023\275\020\352C=\355f\253=\234\2746\276\212\360\240;\357#!\276\333X\204;~(*=\340\245\374;\203\021\273\275Rm\253<\264E\347\275\331\010\241<\232T\261\275^D[\276\361aS\275\274\242\326<k\251}\276)\205\031=\354\365\223\275GEn\274\355\206L=\276^9>| \213\276\354\204\026\275\210\"\021=\312\267\023\275\316\201\303=\332\363\226=Q\276\247=&\315\357;\336\347\017\276#\257\216<\342\273o=\316\211L=\341\020/\276\224\211\362<\243@)\276$\t\013\273\226\254$\275\344K#=\343\214J>;\213\370<\260\223\352\275\301\037-=Z$\206=b\tM\276\211?\002\275\366~\314=\215\326\034\276B=\017\275\223\350\341\2756\322u\274\2740>=[\310+>\036IO\276\261\306|=Ii)>w\364<\274E\035\375<U\251;=M\016\232=\365,\327<)?\336\274<\032\212=\377E\274=\307\332\241=\000\333.\276\324\352_=l\035C\276\220NE=\341\3637<c\032\020\275N\322\320\275k\025\001\274\360\374\261\275.\305f=\353\354H\275\202\210\321\274\216\010)=\267\311\331\275\240]\007>\251\3101>\244\330\300\274=\251\250\2750\232\315=\344l@=\235\274?>\254o\026\275\343\331)\275UP\377=\244x\340=\035\355\255\274\330\250\205\276\253\236t\275G\t\035\276lB\267\274]5\354\274\251\262t>\023\222u>%il=\tI\372\275\364\322\212\275\266\271\036\275\3352v<9\346\351\275)\373U\273;\271\221\275\315W\033=\204\272\027\275n\200\242\274\305\270#\275\301\341{<\251|\372=\235?\335<\343\007\211;\250\242\250\275\254\351i=\225\274\032\274?G5>\351\277\360\2749\374G<\005\324\221\275\036\016\324=5\000\371<\tN\207\276^\204\374\274\264x\217\275N\221\351<s\247\371\273\010\001\201>Z\327\201>\225,\305=\027\204\034\276\304\345\251\275\212\004\321\274Y\346\304<\350\342\'>V0\351<\305\224\265\275\300\351I=\362\376{=\263X\036;\\c@\274\303f\241=F\036\\>a\242\026\275\234\350\230\275\325\237\005\275\031\005\243=\035\372\034\275\001r1>\020{\203=n\212\177=\203\255\363\275\260w5=x\371%\273\271\354x\276A!\006<\247\002\006=\344\034\207=Q6\374;/\005r>1\300p>\010G\000>\357T;\276\271\232b\275Q\364M=\215\274W\275\360\370\347\275{5\315;\353{\240\275@*\211<\305\357\314\274=\241\333=\004\211b=9\2026\275-\220\024\273\334\220\000>\303md=}E\350\275\375\317\227=\3136\301\275J2\223\275\335\304\261\274h\017e\272\026\202\027>\215\215h=\277\326\212\275\013a\347;-\363C\275\002\327\004\275\213c\221\274\235\"\207\275w`\267\273w\314\205\275\177\210:=\325\254\233\275G\203\236\275;\035\267\275N\177\342\274\2508\203\275Ge\200\275\020\254\237\275\225c\224\273m\020k\274\260\250\371=\324\021\364\274?v\t=\251\032m\274\003\330\305;\316\365^=\246?\217\275\346\263O=ya\010\276\355T\355\274\237\342\344\274(\215\024=A\004!\275\300\017\230=+\t\265\273\364yZ=\000V\345\274\rG\252<JU@<\010\023t\275@\376[=\230\225\256\275\371\025\274=\223G\252\275\335Q\333\275\265\003\306;\343Q\024\275\003\007\005>\002\251J\274\010\360\216\275IY\211\273\277\260\035=\361\356\371=?\306%:\31150=\366\355\273=\262\340\006\275\026\312Z\275\024\'@\274\274\350\246=\036\032\362\275\310u\237\275A\311I=%\214|\274[\031\023\276\325\2411=\315\320\033\275\263Ki=\201\331\245<\322n\317=\021\213\275<\377R\207\275\003H\240<\rW\r\276\\\324\257=\342N\315\275\234k\257\275W7\233=\351\347\325\275\300u8\275w\261\225\274>\233\323<\322\354\002=<s\371\275\'\022G<^Q\225<\325\251\222\275`\023P=[\245:>\344j{\275u.\200=\342f\301<\244v\017\276\275\336/\274Z\214\021\275j\266\267\275\262\022;\275\376\342\211\273\224\201\n<KhM\275\304\345\361=B\332\323<y\260p\274\212\203\027;\333\027\253\275\022\226\277\2748\271V\2750\370\247\275\'\2579=!\304\003\272\020C5\275*I\354<@y\206=\242m\241\274M\332\242<\371\005:\275\206\244e=v\350\250\274\360o\260<\271J\222\274\356s\230\274]*\267<C\247s=P\014\265<\r\025\037\276\3364#\271\030|\235\274\265\000\016=\303\2363<\234c\n=U\305\010=\t\222\222<\262\033\232=\345\350#=p@;\275cH\244\275\352C\006\276,\331\360<\351\312a\275\327;.\275\254<\n=\351@\230;\363\361\256=\330\273\236<\025p\365<,\005\234<wI\240;Kok=Vr\263<\276\303\025\275$\244{=J\277\003=T\311\007\276O\275,\274\253%\376\274\312\005A=\230\017\322\275\244\255\345\274\277b\325<m<\215=\000\221\251={\000|<\243\350\223<\302\303\027\275\357\224\r<\247\026\025\275\202\030\334\273\037\277.\275\307\302\000\276v\032\273<\2213\274\275N\373\344\274\347\354\255<\271\014\315:e\003\025=\206\313\247;v\222\373<v\r\311<\022\200\253<\316\003\375\275\033V\r=\371\200\241<\010\222\305\275K\225?\275r\376C>\301\352\325\275\204\327\266=%\217^=\215\371Q\2753\007\232=\262\017~\275\375.\356\275=\3330\274t\014,<;\317\007=>\220\253\275sh\237=}\303\376\275w\337\350\274v\360\034=u\270T=\366!\273\273\'^w<x\362)\275\362i\"=\\\316\344;$#4\274\213\227;\275W\343\227=\323\200\017\275\264*a<\350A@\275\202[Q<\274\002\306\273\313^\3338J4\273\275L\2319\275\233\2761\275T\216z=b\312\372<3D\230\275l\310\222=\321\361P\275@\"\007=L\334a\274\003{\220=\372\227\216=Ba;\275\360\327H=\354\263\210\275\031A\000\275_\"\013\275S\366\303<\224n\203\274\252]\264<\217\263\200\274Q+\304<U X\274\031\273\252=>X>=\22260=E\226J;`O\241\274~\322\260=\356G\201:\276\265\236\274K\302\213=w\362\231\273\264\254\034\276\325x\303\275F\326\276\274q\351\233=\243\025\305\274C\247\207=\316\003\271<\021\370\320=r\275\253<\212\372\264<l\365d=\346\370\n\276K\214l<\340U\243\274\033\314\255<[\225\242\272fC\n=\221;\342\274\330\014P\274\334\305\013\275>\214|=|_\256\274\235\330\030=-\273\t\275=\2443=\315h\025=d\205J<\233\202\031\276,\0148\275]r\000=\315\327\242\275a\322\030=@{9>3\302\356\274g\202\256=\356}\323;\226\214\227=0f\304\275\221\276\200\275\224\030\321\275Rk\252=\264\033\326\273\225\200@\275\376\3251>|\212D=\260\024\003\276\332s\312\274\207\237\333=@ \037>K\273\224\275q\364\252\273\337g\210\274\256y\250;\035f\004;W\346[\274\326-\343\274L\345}=x\036\275\274\236\205\244;M\267\224\275<_\233\275\016\345f\273\222\026d<\346{\207<\200\0172\2757\306`<2\2709=\036\221\200\274]\236:=\r*\000\2763\022t\275\224\0016=N\370/\275\2444i=\355\014\315;jdR>\253k\t=\326\",\275\030\0218\274\303\227\253=7\315\r>\331\201\247\275\267Q\347;6\323T\274\314b\223\272\273\2359<n\252Z=\350\264\313=q\265\305<\361\334\324\273j\2113\275\030\371\202=d\324\304\275\372%:\274\373 \255=\205\251\000>\231E\025\276\355^\211\275\365\346\331\272\276\355Z=;O\274=\203-\257\275\365\024\341<g\200\035>(\311\237\275?\213\202;\026\210\364\273+\213\031>\372\202\r=\371\212\250=\332\n\005=\003k\357=\363&\r>\232\325\244\275\225\241&<\030*\031\275\330iG=\267\363X</\273>\274\t\366\364\274D\237\230<0\340m=)\260\337<\2013\315\275HXs\275\313\356d=\014r\232\275\223\320\364<\300\363\032>>n\177=<\275\376<\341&/=\371Z\020>\362\207\263=!;:\275X\021\255\275\347\330#>?U\204\274\236\346\276\275\205_\224\275\211\230\310\273\3751\336\274\004\353i\273\216q\023=\27598<\270\021\344=,\037\243\274\024Y\213\275e1\317\274\222\264\212\275\036\275<;\213g\\\275W\274]=\324\330Y\272O\2751<\323\026&\275\340\001b\2756\355J<5\344\344;y\272\017<\251\033\021\275%\255\225=(\334X<\215\364\250<\027\253\247=>Z\225=\357\331E\275z\317J<S\232_\275$\367\023=fp\037\275Z\313{\275DN\t\272\005U_=\241U3<\216\273\007=\256\312?=m;\365=\2769\360;*.\235\275\350\340\367\274?\374n<\200\332\037=~\331\207=\231\r\365<n\315\353:\024x5\275\252Fg=m69\275\216\027\354\272/@\203=!\341\322=\377\003\013\276h@\026\275\201\223\n=\037\t\275=\250\030\304=\210E\222=R* =B^\253=Tq\024\276\003bI\274`36\275\265\305I\275>\372\352<\350Q\024>\246\343:=\310\236g=^\307\313\273\331\260\002>\360c(;\242\355\276\275\235\205\226;\273\253\'=\234\007\000\275u\335\206\275\305@\325<\277|h<\335!\271\273/\354}\275\202\217\231;D\300\217=#\272\221\274\232\005\324\275\304\210\t>\222\3520=.\243\020\275J\222e<\355[]=,\220\037\275x\n\"\275\342!s\274\367\366\021>t\3555\275\340I\254\275Qn\026\275_\356\217\274\252\352R8\0108\320;\324\360\351\274Zn\361\2759uS\274\256\233\253<\373!\302\275\301-w\275ky\261\275\201\036-\275\272\002\364\273\225\211\354<\361L\022\275\327j\242\274\332\201j\274P\361\014=}~\200:\177\016\344<\023\007\272\275\324\237\177\274\240\375(=\"s\226\274\271L\205<\326\323#\272\341\035\306;\000\333j\275G\263\030=\372\261\001\275G\273\360<\360B\377\274\305=\266\273}\305 \274\256\021\334<\t\340\007<\300$9\275\344\033\211\274*\324\360\274\265\221D=\036\r\207\275a\033\222\275!\031==\210\303\353\274\212\232v=b\261\036=0\333?\274\374\020\247\275\216KA=gwt=\312E\236\274\216\034\007=\350\2431\275\206\354\300\275\370^\214\275x\223\003=\357\217\203==\224\270;~\036\022\275\227\350b<\334k0<\252\333\034\2765\224\220\272#\216U\2752W\313<e\212\275<\312B\252=\206f\332<\336H\r\275\376\037\257\2750\225A\275\'\014!;o\370\214\275\263\r\025\275\177e\202=*\307\301\275\264\2412\274G\3025="
      }
    }
  }
}
node {
  name: "conv1/weights/read"
  op: "Identity"
  input: "conv1/weights"
  attr {
    key: "T"
    value {
      type: DT_FLOAT
    }
  }
  attr {
    key: "_class"
    value {
      list {
        s: "loc:@conv1/weights"
      }
    }
  }
}
node {
  name: "conv1/Conv2D"
  op: "Conv2D"
  input: "data"
  input: "conv1/weights/read"
  attr {
    key: "T"
    value {
      type: DT_FLOAT
    }
  }
  attr {
    key: "data_format"
    value {
      s: "NHWC"
    }
  }
  attr {
    key: "padding"
    value {
      s: "SAME"
    }
  }
  attr {
    key: "strides"
    value {
      list {
        i: 1
        i: 1
        i: 1
        i: 1
      }
    }
  }
  attr {
    key: "use_cudnn_on_gpu"
    value {
      b: true
    }
  }
}
node {
  name: "conv1/biases"
  op: "Const"
  attr {
    key: "dtype"
    value {
      type: DT_FLOAT
    }
  }
  attr {
    key: "value"
    value {
      tensor {
        dtype: DT_FLOAT
        tensor_shape {
          dim {
            size: 32
          }
        }
        tensor_content: "\244_\214\274\003!\265\271\027c\204\274\025\314C\274Vm\315\273MD\0338B\311H;\240\214a\274\177y\354\273F&\304\274\344k\272;\007\217\217\273&\302N\274\246?M\273^\337\301\274+*\240\274\363\214\035\274\251>q\274_\014\300\274\210\277\320\273\t\027\261\274f\211\306\273j[\312\273s.8\274a\365\253\273(T\230;\325]\217<\240\326\252\273[\027#\274[\360g\273\326\326%<J\3175\274"
      }
    }
  }
}
node {
  name: "conv1/biases/read"
  op: "Identity"
  input: "conv1/biases"
  attr {
    key: "T"
    value {
      type: DT_FLOAT
    }
  }
  attr {
    key: "_class"
    value {
      list {
        s: "loc:@conv1/biases"
      }
    }
  }
}
node {
  name: "conv1/BiasAdd"
  op: "BiasAdd"
  input: "conv1/Conv2D"
  input: "conv1/biases/read"
  attr {
    key: "T"
    value {
      type: DT_FLOAT
    }
  }
  attr {
    key: "data_format"
    value {
      s: "NHWC"
    }
  }
}
node {
  name: "pool1"
  op: "MaxPool"
  input: "conv1/BiasAdd"
  attr {
    key: "T"
    value {
      type: DT_FLOAT
    }
  }
  attr {
    key: "data_format"
    value {
      s: "NHWC"
    }
  }
  attr {
    key: "ksize"
    value {
      list {
        i: 1
        i: 3
        i: 3
        i: 1
      }
    }
  }
  attr {
    key: "padding"
    value {
      s: "SAME"
    }
  }
  attr {
    key: "strides"
    value {
      list {
        i: 1
        i: 2
        i: 2
        i: 1
      }
    }
  }
}
node {
  name: "relu1"
  op: "Relu"
  input: "pool1"
  attr {
    key: "T"
    value {
      type: DT_FLOAT
    }
  }
}
node {
  name: "norm1"
  op: "LRN"
  input: "relu1"
  attr {
    key: "T"
    value {
      type: DT_FLOAT
    }
  }
  attr {
    key: "alpha"
    value {
      f: 1.6666666852e-05
    }
  }
  attr {
    key: "beta"
    value {
      f: 0.75
    }
  }
  attr {
    key: "bias"
    value {
      f: 1.0
    }
  }
  attr {
    key: "depth_radius"
    value {
      i: 1
    }
  }
}
node {
  name: "conv2/weights"
  op: "Const"
  attr {
    key: "dtype"
    value {
      type: DT_FLOAT
    }
  }
  attr {
    key: "value"
    value {
      tensor {
        dtype: DT_FLOAT
        tensor_shape {
          dim {
            size: 5
          }
          dim {
            size: 5
          }
          dim {
            size: 32
          }
          dim {
            size: 32
          }
        }
        tensor_content: "u:\013\274\340\253\230<\024zq<tQ\014\275~/\215\273-\0240;\366\271\232<\203)\274\274\004\'\225\275\351\234*<\353\021c\274 \310\371<\363\377\013=\372\324\367\274\355q\216<\275\343\245<\226\312\223\273\372\3067\275\211\347\031\27583W\275}\003E\275\320\2262=p\\[\273\300r7=\233E:\275\224\251C\274\216\206\360\273M\236\014;\347cm=P\352\223\275\311H\276\274\211`\035\273$\335\371\2734\365\361\274<%\204\2740\347\r=Eq\274<\347y\340\273$\327]\275<\254\313\274O\310\224;h\330\303\273\217z\020<\360U\032\275\367\355\323<k\005\013\275~\362\344;\n\350N<\215S#=\310\224\n<\342\364\333\274\013\"\241=\357\231\014\275v\004\202<\026K.\273|\237\035\274D \024=i\204C\274\016\217\312\274\366\361=<\367A\337\274\2534[<\345k\031<\375\3445\275\\\2409=`\035\030\273k\350\016<\361*\316\273z\023K;ou\312\274\271\317\326\274\0203\217<N\201\277\273\262\2540=%\242\221<,\346\027\275\035\321\234\2749\304\247:\027\224\263;2O\005=Q\315R\274&P\234;\354\214\332\271\202|\310<\252\313\017\275\231\247N\274\264\236\236\274\036\234\304<-- \274\306\354\014\273\033\025W\274!\274\202\274.L\372<\377W\n\274\232v/\275;\001\200;7\035e<\220kF\275xY\210\271\263\270\365<\361a\327\274\342\223\021=\202\316\242; \311.=\0064\027= \020p\2731\240\240\275\213Y\277\274\356\2245\274\264\376\013\275\311\330[\275\316;\360<a\310\232\274m\351\365\274\"]\243\274\345l\275;#\233\262\274\353\217\016\275\007\370\023=\317;\301\272>\322\224=Bo|\275g\344\263\274\267M\316<\005V\235\274\226l\003\273\001\033%\275h-^\275\372\304\377<\314>O<\033\360\210<)-\313<s\264\324\274#\021\035\273o\200\254\274\022PH\274\302\321\353\274\0051g\274b\237\002=\360\216l:&\201;<\212w\274<\276\013\037=Sm\037<\004\244\257<5\215\016\275\374\363\336\273\2009U\274\025\031\\\274\345\243\030<\260\203\375<\004\243\350<\005\276\274\2746\0306\274\322uH;U6\242\273\013\301\257<\252\360\375\273\202\250\335;\016\332\234\274\005\3508<\207\367\271\2711\277\035\275\234\364\233\273.\3372\275\nD4;lO>\275\267\350\336\274\321\227\3429\246\253\354\272\355\373Z\275\'S\016=\200!\266\274&\247\233<v\312p<\272\265\336<\366\365\346<\263K[:\010&w<\021\307-\275\303\277 \275\014GN=\206\263\303\274\001\0074<\336\231O\274C&A\275\330E\364<W\215\006\274\020c\350;oM\214=\177o\331<G\237h\275D\247C\274\226\002\227\274\026\212\355;n$\220<\006\036\321\274\262\305\210\273\350-\264<\274M\350<<\'\221\274\t\270\034\274\377\264\221=\352~c\274U\027\215;2^=\275\207\315J\274\345<*<\241n\032\275*\265N;\007\241\370\274G^\251\272\303{x\274L\275\027<\246\375R=\210uR\275\354\330\313\274\rr`\274\366\256\241\274\262\247\303\274\'\"O\275\373\373\344:\026\334n\274\373\021\275<~\323\254<_d\331<\000\371\261=j=\364\270O\010\231<\270\212-\275&\336\221<\355\357\261\273\356\321\323\274\341\331\254\275z\242\245\272\373\353@\275\320dt<\t\267\355<\362\2348\271L\266n=\271=\031\275\301\002\216<\336\266\024=\243\270\334:,r\203\275\3603U\273>t\235\274\274#\322<\356\230c\274\345#}<\023\263,<(\305\014\2758\030-:\323}\214\274\344H\363<9k3<}D\'\275\310\334\273<\033\035g<\311\355c<\306\364\306\274\000s\327;\233\220\254<\350\333\001\275\204\370\312\273\365\343\313\273\300\355\026\274\313\273\235\273W\031I<\337\362\217\274\364<5=\233\261\006;\253J\036\275\322\032\313<\032\033\212\275\224+\263<\016\243\007\275E3\304<d~\000=\232\274\350\274I9x\274\245\"\025\275\333\305+<Q\223\222<\020\274\241\274\245\231\306\273\305\347A\274\371\301\254<\306\0149<\371\303\206;\3768%<p\005\271<\221\206\305\274\212\230\n\274\205\215u<\273\352\254\274\251i^\273\244b\223\274x\335\022\275:u\225\274\026\332\217\273\030\217\320<\221E\232\274\332\017\232=\306\360\203\274\370K\330<\267\245\n\275\335\345f\272\003\213\313\274+}\031\274\'\037\203\274Hz\214<\260\314\023\274)\\\023<\370LJ;\ry\350\273\026\301\030\273;\274+\274\207\023\366\274\355\3418\275\221\343n\275ESj=\177\327d<\371\302\246=\232\277Y\275\034O\236\273\347\366b=\217\022\373;\021\326v\275\005u\032\275\216\367\340<\366\005P<\374J\221\274\214\377\362<\301\253#<\251\246\203\273)\305/\275\226@\355<t\034r\274\262T\347<\030\024\343\274\271Z\217<\317\021<\274\210\276\t\275|\206\272<\222v\001\2759\236X<\354\213s\274\020T\024<\257\271\305\274-F\001=\334\264>\274\t>l=\361\377\331\274\242T#\273\370t\334\274D\215\237\274\'-\036=s\274r\275XD\202\275\260n\240;\264\005\211\273\215\352&\275%\223b<\264\232\215<\240\321D<\235s[\274%\234\331<\274\0239\274\337\036\332\274x\005\240\273s\334\222<\024qP\274\346\017\177\273\036\001\266\274\017\021G\274\313=\367\274\351J\030\274\242\252\347\274\221c\035\2740XN=5d\017\275\230\250\002=q}\035\275\234\026:<;\246P\275\3479\363\273\2125\324\274\017\342\033\273\033\030\203<$Ua\273l\267\216<\217\250K<\000v75\254\367#\274E\3243\274Dj\245<)\201\037;\315\245\217\274W\016\226\273\323\r\204\273\275\323a\274,\366\317<\324\235\010=\300\332I<\321\210\246\274-\222\260\274\0315,=!Y\004>\010dc\275EOu\275\225\254\017\275E\007;\274\274f\013=!@b\2754\017\222\275\323\231\037;\357+\213\274\272\005D<{\213k\274\030\206\303\273\222\3539\274K\227\357\272\236:)\275\277i*=\031_\330<\003\\\212\273\354Y\307\272\230Y3\274ec\315\274\037j\270;e%\201;\365\345\207;E\346C\274\273\216\010=\275ID<@\236\324\2744)\342<+\376\2419\ta\000\275\021\304\277\274\275*\247\274\305)\232;\215F\001<\212\177-\273.\216-=\363\254\"\275\344\315F<\361e5=7\273A\275\364\273\305\274sV\215<t5\336\273\262\r\025=\310\353y\275n\035+\274\332V\023<\340.\210<\221\211\037\274\216\265\222\273\211~\342<\306! <s~\214\274\205l?\274\306\351\202;\021\304l<\347\2557\274\032H\233<\301%P\274\317j\265\274\335\014\203\274\005&\216=t\351i\274\305\366\305<\212\207\252\274?\311\331\274\201\014:<%Y\200\273\242B\261\274,\354V=[\204\026\275\303\230\253\273\204\016%=\302\207t=\002\326F\275\304\200\027=\"\370\331\273\357\234\276\274Kh\021<\231\"\375\274\327\270\005<e$\253\274\037#,=P\371\233<K\347\337\274\3659>;i\234\003;\0232+<\312\207\324\274\321\272\t=\177A\031\275\361\2328\274\232\377\310\273$\272\261<9&\346<qU\320\274\004\351#\274\305\267\302\274A\332\275\274\270\233\204=K_\214\274\365m1=\274\330\3629F\001\013\275h\275\271<-\305\253\274\023\007;\274\257M\007\275\3261}=\017\354L\274*\343\366<\202\030\237\274\256iG<FK\036\271m\014\273<R;T\275\371\364}\273\323\206_=\032p:\275\212\233\262\273*c`\275\367\234\371\274\373\327\013\275J\233D=$I\274<\275fc=\202$\005=\256\3702\275!\016\200<ay\320<>\355-=\002\275\207<\301\256\255\273k\000\335<\247\3311\275dqM=\213o\301;L\r\025=\346\370$\270R\316\031</\270\353<d\034(<wFU\275\343\216\255;\211\201r\273l\323\333<,\032\246<f\216\232\274\343\305:\274 q\204<\322\272\230\274\300\270\370<\2150\\\275J\3503\273Z\315\022\275\251\355\245;\341%P=\t\365\225\274\242\367\327\274\352.\267\274Q@\221\274\264Ti;\343\211\002\274\240\'\271<\336\331\224\274\030\3414\273RW\233=.K\301\275\034\r\241<\247\327\206\273\211b)\275\232?1=\300\036\231\275\264\360\227\2731\376c<l%*\274\337O&\275N)O<\277\r*;\251\373\200=e] \275\344\032\343<*\310\271\274\024\344\334\273,\355\260\274\033\305#=\321^\370\273S\316\030\274\303DG\275\313E\210\275\315\327\263:xt\027\275\243\337\366\274\224\344\t\273\306\256\027\275\244\251\027\273X\240H=\260m\203\275\312\345\254:\302\014\205\274\206\366\022\275\306\324\251\274(\217\264\271\270\340\006\274f\nu;m84\275u\221\302<\253<\272;)\321\256\274~P,<\211\016\276<\013]\262\274\255\315\226<Q\020\260<\030\252\215:v\242\374;\025\233\004=\214\347W\274\353\360\316\274\2709\242<\332s\267\273~7\252<\001\007\026;;\'\312;e\274\333:\033\372\026=\0379\346<\246\204$=\t\321\234\274\202\233\r\2759\373J\274\022C\017<\264\216\\\274\'\021;\275)\006\246;\200\030\332\273\256d\353\273#\347\260\273\023+\332<D\320\227\274\006\023\021<\020X\265;\376r\332\272\232\216\216\2754\251\2517\023\240 \273<\017e\275l\317{;\304\252:\275kB\314;N\331_\275\336\027x=\020\210\027=\177\235K\274gp\301<\233\"\024\275\001\035O;d\305\017\274\366\033#\275\215\007\267\273\236u\223\275\343R\304;5\273\235<\344:\261\273\332\343\306\272\354\241\003\275\354\001/\275\306\036\037\273\311\020\325\274s\340\245\274\347\374\313\274\001\r\270;\342\323!\275\320<\211\274\001p\203\272O\356\237\273\305\350\245<\204\266?</f\004=-\370\230\274qn\274\274\244\262\340\274\020\227\277\274C\3669=\351Y8<)F\215;F\303\001<h\371\334\274\244vi;\022\005\000<\352\330\272;\320>P<+\353\240\274\253r\202\275\023q\355:\260\214$\275\262/\361<xFr\274\223^j\274D\237\207<\336\350\301<k\367R\273\232\356X\273\343\256\275\271D\250\250\274xb\333\274J\331\326<\210\267\226<ch\340\274\203\341\276<\352m\233;\235\210\317\274b\305@\274I\006H\274o14\275\267\340\034<\373\371\250<\314\010\004<=1\327<\006g\301\274\235}\275\274\261;\364\272\225\220\225\2748^\005=\247M\314\273\254\n\356\274\017`D\275\267\311\245\274\252\002\245<68\322=-\257\246\275\312\037\022\2740\ni<\265~\312;1\225\024=\n\206\003\275\024\006#=\257\254\t\275u&\t=\216\241\026\275\022Lp\272nt`;\337\257\257\275\360,q=\236\ny\275\363.\207\273\227\376\203\274\233\177S<\021\350\301=\'\352c\2759\201\013=\246\317%\275\324\237\301;\244<\246\2746\366p\274H\017\211\274H\t\235<\325s\000=\222\322\023\274a\r\356\274E\264\364;\030\272S<B\262\224<\317r\214\272\220y\300<\344\317$=\336\346m<\367d\361\273\034|?\275xV\354\274\036;\216<\006@i\272\023\3768\275\201w\342<\337\302\242\274JY!=O\254H\274\016\315t;g\342\003\275p\200\264<\350f\001<\266\3407=m?\365=P\272\277\274\'\375z\275\375]\030<S%\230\275?#[=\347\225\324\274\330\372\206\275Q\347W<aZ\203\275-\314[=/?\004=\023\367\225\275\203\005r<6\277\304;}\253n=,\256\274<\213L$=qB\235\274U\240$=|CL\275i\321\223=t\371\220\275\331\032\263\2748\031]\273\225\270\3309\207\023\'\275\264{\253\273\0165:\275\266)\033\275\023\025`=\3662p\275 \351J\273B\266j\274\360\310n<!\2255\275u\332\230<\212\306Q=lB\177<\340c\364;C\210\272<\314\317Z\274\033\213i=|(\016=\200\231\232<\024\350\245\275\005\0328\275\032\215%=o{\200\275\326\240\206=\013\026\013<\220\027\237\273V\020\312\275\214\3744<\345NB\271\177d:=\017!\252\273\327\232\316\2749\365\322\274}*\202=\374\366\237:\370\223T\273\241I\253\274z\232\2129\'\260}<\020\215\213\274\235<#<\353\206\'\274jT\252<M,#;_]\021<\002\035\273<3#\n=\205A\244\275\n4\340\274\2020K<\024O6\275a\347\226=\232\022W\274\236G\314\274\247A\215;\203\374\270\274\215\274!\275\007\340\300<\3204\253=P*,\275\332g\215\274\356\235l\274\033\024\366\273X\274\363\274\313m\017\274\245~\260<\370\334)\275\310\301\212\274?\022\252\273}\212\203\275\377\244f<\271\204\026\274\026\304\017\275\267\001\021\273\357y\201;r\344\005=\207\355\317<*\326^\274/\033\037<\210\270#\275w.\332\274\340\004\3068Y[*=\017\336\031\274\334\023\037\275h\007I<\235\nu=h\036\253\274vE\224<\031\335\002:VX\017\275\246\026E\274\340\022\237\275\014\352_\2743\213\\<\234V\344<nQ\"<u\030v<\216\303`<\343\022\214\2748\353\2539W\215\010\274\364\220\216;9\331&\274Q\035\017\271\2111;\275\036\241\361\274+\315\211\274\013h!\274$E.=\004\002\361\274\333i\004\275by$\275\213Rg\275\264\275\373<\377yM=Q)0\274Gy\240\274dG\274\272\026f\247\274E5\014\275\313\353\213<O@\261<\262@K\275b\rr\274\345\317\006\274\010\360\021\274\251\0208\274n\027\364\274\335;\300<Y\202G\275\024\036:\274\333\3428\273\213g\321\274\265\370\n\2747QT\274\377\357\260\274\363\361\n<\254\0274<j\241\'=\240\374\032\275\016\327\022=\037\343\375<\260f-<\014\360\022\275\204c\030\275gi\222<86\212\273\276u\211\273\005z><aN\306\275\306W\213\274\272AR\275\305]e;\375\204\270<\000p\263\274y\353\213<|s\024\275:\213U\273\375I\254\274\226\354!\275\000&\336<\244\366\037\274Ik9=\206\236\3309JOb\273Y\255|\275:\024\235;\232\252\002=89[=Ok\221=\345\235#\274\354gN<\236Og\2751R\263\273jT\325\274\364\226\306\274\255\tA=Cpd\274\273\323\004\275 \345\353<\3146d\275n\252C<\n\023\020\274\320\270\321\274c\274#=\"\260\345;{\330\036=s\221N=z\3331=\272\245\201\274\210\200\311<Ktk\275/f?=\372\277\247\273\263]\276\274\241\225u;\336<\241;\342@\030\273\237\305\231<\031\213h;P\252B=\016\204z;g\037\216\274\231l\225\273\317\026\244\274\272\204\226\274\244\303\213\273\036\2476;\326o\203\275q\"\363;\332\305Z<\351&\305<\332\255\216\274\336\253{\275\230\255Y<\307c\333\273z\234\243<\344\260\352<\254\214\351\274\025>r;\354\006o=R\370,\274\367\006\210\275\014m\342\274\372\203D\275\276\0330\275\346\323)=^Q\255\273g\034\215<u\305\r\274\340\221\317\274\'\371<<\020\031\261\274\322\346\241=\037\212\242\275-Z\001\275\240%l<\302\265\020\274CM\305\274]i\210\274\344\310)=\273\n\017<2t\262\274\257&\004\275\246\371\r<w\004i\274\035\271\215<\341NF<P\253\024\2741I\200<u\373\304\274\271I\270\273A\303+=\330\0138=\0130V<\373]K\273\001~\207=nR\220\274\263PN;P\022\311<\202\240\211\274\214\266\264<r-W\274\327C\264\273q3C:<\000<\274v^!\273r\037\211\274\"\031\311\274\367\026&=\214\321q<+\226\240;\331Q\305;hT6<\246o^;>\350\006\274\346\220\252<\330l\363\273\020U\032=\323\230\014=\334M\231\274\203q\220\274\356x\200\273\200\023\3449Kf^=\260\345\200\274}\245\267<\246\313\023;\037\262\016=\342\353\n\275mnX\274mY\357\273\033\0316=t~\371\272\351\3727\274\327\250,\272J\002 \2758\023\032=p|\304;\367wW\275\222A\203\274\321w\030<9\254\324\274?\2563;~\031J=$\247\333\274\210?\263=5\330\034<U\347\251<9\246b=~\377q;\366*\310\275\220L\261\2742h\376;\320\312^<\261\353j\275r\220\023=\326M\003\275\272Z\035={|\201\274j\204\204\273H\346+\275\215\342\036\275\024W\343<\023\376\216<\225 \273=\264F\206\275\2276\276\273\031\324\207<\243\262\247\275\352\375\237=\234\021,\275\230\247\215\275\362\227;=\312_\007\274Z\277\244;\003u);hV\006\275[%!<\031\207u\274\317Tu;\373L\357\274\276\316\203\274\301\207\247<\036c\321;\364\215g\273\231Q,<<D\360<rS\261<)!\322<l9\201\2753v\325;\013\246\264\273jR\316\273\317\265\246<\252\0166=\242fb<\250\270\022\274\257\261\200\274\270ew<\267\303\267\274\344\302\024=m\365\364\274<\352\000\274&\256\265;\323\257\021=+O\340;-_$\275\006\207.\274\257\331\377\272\250=F<\326\2143\275\247PD\272?S0<\370tx\274\361>\313\274D^\022<\315\014`\274o\316\206;\215R\250<l\276N<\t\303\203<1\t\212\274\002+\234<\017\261\343\274T\240j\274\200\213 =J}\212;\013\341\240<oO\206\274\350j#\275~\361S=\t\223\311\273&5!;\354\005\273<\030{\032<\212U\207\275\301\342\031\275\274\360\266\274\247\277\177;\224\220\201;\036\343\373\274\205\037\314<\340\017\334<\377\3233=\312\366\377\274b\250\n<3\020\272=\314\252\237\273ig\013\274(\031\274\274\202\017\266\2741\3478<\363\3506\275\374\257]<\356\252q\274\017{&\274kR\303\2734\220%=\2456\020;?\271S\275y\275\327\273m\220\245\274\336\232\310\274\t!\231\274Q\320\376\274\270B\252<\374N\241\274\330\220\206<\273\224\004=UP)<\330P\211=\302U\343\274T\342\362;\314\010\215\274<O~<\250j\037;\030w\260\274\000\243\202\275\010C\325\273\022\2500\275fg\220<\232\204|<\017\370w\273)\234\262=\225\023\032\275\337\345\000\272Bc*=\316\016v<\354r\\\275\031O\200\273\r\036\244\272,0\326;j\351\351:\236[\223<6\260\036;6\377O\275#\274\373;1\373\226\274\367Z\363;\372\225c<W\337a\275\245\315r<\245\307\317;\347\177J\274k7\303\274\320\344\010=B\236\333<@\004\223\274&\245\336\273\36166<\235U\300<\212\333\032\274\375\367\202<\333E>\274k\252\006=*\213{<\253A\036\275\037<\242<N\2138\275\374n\204<\034/\360\274\373\247\333<\271\276\004=`\235\356\274\362\371\037<\276\020\017\275\356 \264<\226\233p<\354\3107\275\356L(;\177+,\274\211\371\366\273{n\257<Q\315\037=\333\026<;\345\0360=\214\027H\274\032x\317<\010\224\006=\\\004\217\274x\243\232<\277\250I\275\247\222w\275\327\376/<\363\313\366;\1772\271<Fo\200\274,=\245=\351\373\010\275M\010\203=k\317\256\274\201J\230<m\025\222;\253\372\000\274\ra\212\274?\235\265;E\215\305\274G{4\274\372\313\344\273Z,\223\274bJ\246<\327\243\241\274\255\333\004\275zM\006<\301\317\313\2743\261\232:\232\026\224\273/R\230<%\374\033\275\270\313\231<I)\256=q\247\3179\005\2312\275\300\260\016\275\177\006\345;7\261\"<\016\357\270\274Z@\217<\377\275\026=\351\342\224<\322\376&\275\022\022\322\273\365:\302<\002T\365<\315\350\030\275x(\241<\232E\327\274\033\247>\275\022KI=H\245\021\275#\214\276<<\343\235\274\"Z\307<\303\177\234\273\330v\'=\304-\322;,\314\227=)/\320;\344B\n\274\006\344\377\273\361\276\225\274\306w\237=\221\021\207\275\202,\202\2750\210Z<\200\021f\273\203\302\241\275h\250\370<%\231\303;\337P\373<\225\317\220\274$\262w=\325\301\340\2745\300$=^\014\202\273\337\340&=\032(\252\274\271~\214<\025\333]\274\301W\013\274L_E\275\346\006\206\274\263*\010\275\362\276C\275\331\334_=\204L\315\274I\007\331;\344\005\361<3\005\243\274\375\362\215\275\353i\225;~\034y\274\337\255\313;\320\235B<\265\021\t\274UZ\006=\0004\355<\320\217\330<\350a\260\274\237>\005\275\333\272\314\274A\016\362<\2266@\275E\025\360<\004c\227\274d\261\260<8\363\036=+P\2669_\023\314\274Z\\\276<\345\017u\274\262\024,=\266P >\271\356\245\275R\250\260\2749\004\325\274\244\016\313\275rc\230=c\316S\275t\341\253\275a\366\256;\016\373\234\274\244Y\023<\274\014\334\274\003\000\251<\355$\304;\006\3654;\374\347\031\275\022\237>=\216\311D<\372\333\210<j\317\343\274>n\327;\226\201\335\274\016\351f;\347\327\224<Z\026K\273d\264\023<9\300$=\224\302\254<\364\336_\274\340\340?<\322~4;N\242\013\275\020Y\304\274\"\366\273\274\224\363\311;\235\245q9\027\320o\274\016\025*<<\037#\275\024qd\274\274\244\177=\267\3522\275MK\030\274h\206\032<J\254\237\273\337\325r=:E5\275\r\016\036\275|\334\003;\347.\033=V!\260\274\327\246\202;E=\307<\035C\354<\233\0205\274R\3769<\340\366\350:\036\230v<\355\270H\274\302#\016=\032\321\306\2743\217k\274\234\030j:\211\262\330=\315ZV:\364\3673<Le\276:\274\2147\275!j\235<\317c%<q\2460\275/oL=\324\260\375\274\350\211l;\210\323\005=\260\000X=\333\2377\2753\371*=[\t\337;\036w\312\274\376R#;K\352N;$\365\310<d\271\332\274\377\005\341<<v\260<I\\\317\274\363\331@=\332\304\256;y\244\r<V\360\306\274_x\361<\003\037\374\274 \366\312\274|\332\343<\002\362f=6\276\352<%\307-\275pV\223;Jm\313\274\350h\355\274*\377r=\033\000\r\2756\357\340\272\301\037\335\273Z\262=\275\200~\211<$\373g\275\366\322\344\274\'W\204\274\367\312\215=9\367\033\273\022O\313<Gg\213\2749\202\301<j\034\355\2735\340\211<\245Z\202\275\327\3268<8\'\327=%\2674\275\247\n+\275\247R\377\274\024\207\304\274\303\202\031\275PDQ=l\210\363<3\026\345<\036u#=\275\353O\275\300L\005=n\001\352\273d\340\230=\244\204Z<\2336\222\274n\203\034=\234yg\275p\232\234<\367`\001<\301\205\026<3\326U<\002Mf<O\255\022=MI\007=\177_d\275\021\241\252;v^:\274\276\016\344<\352\267\336<\300\254&\274\314\002\376\274\372]\027<Ut\313\274\333D\265<\2221\217\274q\034\267\274^:\275\274\334\371R\274k4+=\210\300\335\273T\346\214<T\264\031\275\351\267\360\272\337\251\200<Qdh\273\345e\205:\207w\271\274S\216\327;@h\310=\337\0302\274\371\000\365;\303+\327<\027LT\275o\302\333=G\021\201\275\235\000\211\273\315\305\366<\314g\004\273\273\345\213\275\326eN=V\324\234<B\022\243=h\344\013\275\373\326\n=\272\002\002\275\334\335\262=\253\004\305\274\307\377\001=\254\tU\274<\325\n=,%\221\275F\036\211\275\203\211:\275\037@^\275\367\222e\274\375\017\022\275\341%.\275\035\016\215;/\306\"=\300\'\303<\222\004\325<T\326\302\274=|\375\274\310;\335\274\'\232\255<\370U\211:\322a\346:c\345\310\274\2574\345<j\036\021<\202\321\"\275\210\250\326\272\267E\233<x\313\337\274\312\014\307;{\364\032=\366rs\273\262\356=<\336\213\024=\360C\320\272?o\236\273\0136\271<\021w\271<tsE<7\277\005\274\323\241\323\273\334\214+\273\357\010\362<\302\230\351;\0316\220<\246\205\313\274\346)\311\274\227\356\010\275\333\362\001=i$]\273\312\216\002\275\374\226!<\213\0201;nB\262<\005\220\254;\255\025\314\271\306\003\264\274t(\257<\211\304\264\272(t\252<\332\377\202\275\336\242\200\274\226\347\234<\213\237\203\275\305?\305<\027Fg\275\343M\375\273\242\266s\275t\237\256<$\310\314<|T-\273<\211A=\022\233\205\274\360\353\306\272\344\225(\270W+(\275\2127\213<\004\366\255\275\210\226\007\2738\'\260<\177\222i<[(4\274?\341\231\274\005\342\022\275\314\2564;W\262\257\274E*\252<=v\242\274\354+K<\252n\353\274\010\324\310\273\355\234\276\274%\330\347;\216\000f<\345Vd=G,\224<\363P\021\274\202\026\346\274\005\224B\274|\226t\274$\327\035=\216O\342<\217\334H;<Y\335\273\365\024\364\274\200d\361<m\316\242\273\336Q\305\274Q\037g\274\232\236\372\273\005\202z\275\210\320\002\274\217\253\314\274\221H\324<\000\237X\264Q#\263\274\371\204\275;\355\324X\272\326h\000=<\005\036\274\177Q\256<\355\373.\275\321\301\312\2747@M\273\376.\246<\361L*\275\312\320:=S\021\312\273\r\226\242\274u\212`<\021,\321\274\313 \023\275\356,\356\274\224m\035=%\025\236<\276_:=\341E\315\274\252\3109<\304\\\217;r(V\274Q\004\327;\216\252\311\274\321\215\253\274\002\026|\275\211(\034\275\007\031\323<\270\177\207=f\237\235\275x$b=\366\212\024=>c\322\2730\0202=_\262\030<\313\211V=n\360\257;~\014\226<\247\301\272\274\354$3\273\277\354\016=\245e\301\275\330<}=\357\3768\275\3014\330\273\226>\332\274\036z\317<6\'w={\305J\275N\000\001=\237\017\235\274\005\377w;P\000V\275\330\3424\275\000\304\343<\030\341u\273`\344\277<\351\317\224\274\213\344\007\275\217\3115\274\233\225\210<Y\037\211;\245\343\214<\315\013\242<a\321\000=\332a\350<\376\211\n=\237\320\\\275\025\031\016\275uWB<\317\277\220<\332\262.\275\0243\001=\010\252G\274WpK=\224\203\253\274\343f\030\274\202[;\274\365\337\355<\343]_\274\3309\004=\276\240\236=\345\305M\275Gh\232\274m\353\266;0\362\251\275\016\303C=\347\251\t\274\335\365\307\275\271f=\273\020{\216\275\204\222\225=3?\213=\240\016\247\275\217\2123\274\372\202|<J\004\322=J\374\001=,\024==l\353N\275\233\350u=\322p\n\275\261\311\236= ~\252\275Pp\250\273E/\304\274\247)\353<\205\323\014\273\303;\332\274\332\277\006\275\222~\036\275!\246\333<\263$\230\274RF\312<y\346=\275!\354[=\261\325&\274\224\334\306\274\001\314>=\024F\311:\221R\005=y\230-<l\342\271\272\331\346\236<\265\302\345<\211Z\217<\256#e\275\215\272\027\274\211\331\035=\304#\231\275rJ-=\334m\322<\363\240\036=\372&\245\275\030\276\237<\\M\364\273\200\221~=\343\337\230\274\262\243\274\273\300\1776\274\023\006\271=\210\3751\274\025\021N:g\3060\274\267\326\262\273\020\r\361;\353\316\341\273H\307j<\273\257$\275\3268s=\316P\224<\370/)<5\200\300<\005E:=w\335b\2755\230\216;s\257\235=}z\357\274\030\351\217=8\271\275\273: *\274\200\313S<\246@\306\273|\315\304\274osr\273\252\034\344=\201\233B\275\010\345\r\275\007\244\017=)\353\233\274*\0060<\255\343\3769\031\223V<\273\277\324\274\"eM\275\342\226\n<H\263%\275\017\247`\274\003\241;\275\344\376~\275P+4<t\027\037\275\322\027\223= \217\331\273\276\n\375\274\022\345\272;\026Vv;\361H\254\274\353Ei=\216\221\023=\352\233\310\273bs\326\274\232\205\t<\0071+=\326\217<\274 \024 =\240/\323;E\207\343\274\373,\315;\\\371\210\275M\341\201\274\236\254\223<\3632\305<7\210\210<\210\356\343<X>k;\2050\342\274\244\000\035\274\311R\014=3\224\267\273M\234E;\206\034B\273{\371}\275\246>\271\273(\271\376;t\312\003\275_\210\032=\234\335\270\274\"$}\274\211\245\276\274\034Y.\275\216{ <\342\365L=\202\222B\2732\2478\274v\265\032\275U\224\231\274\237\252:\275\263\300e;V\344\356<\207\255\002\275\270h~\273\rJO=\021\201\010;\234)\000<\336M\332\274\274\275\300<\207\020\020\275\364\237\254\274\037\314\264<\343\201\355\274\274\316f\272\320C.\275!j\346\274\030m\357<\243j\243;\361;\375<8n\002\275\205\350\031=\341H\311<\210\275\260\274\375\013\231\274L\351\036\275\017Y\222<\217\322\032\273\033x\337<UE\213\273\204\372\270\275mU\234\274\316\021X\2757\372!\274i\365K=\232G\005\275\037d|<)\333\340\274\013\n\374\273\315\351\222\275\344\034t\274\274\261\221<\337\037\224\274\210d#=2\2420\274\332\006\257\274\320\250\272\274~\006\331\273;\267\t=\300F\201=\211V\232=_\256U\275\302\255\302<JFO\275\236V\341<\332\201)\275\352#\264\274\032X\233<\013\034\026<\267y);+?\017=\276a;\275\230a\225<\004\022\276\274\24358\275C\277\273<\220\216\027;,_\343<h7I=A\035\201==T\331\274\237X\236<\343\334*\275P,v=T`-\273\301]\347\274\021Q\267<\037>\325\273Q\303\320\273\366$\215<\t\306_\274\370i\357<}\377E<\027\201\354\274\227\224\031\274\023>$<$}\336\274\304v\253\274\211\213\016\274>\370m\275\n\014\\<\236>><\241\000\305<\310x\214;\314\013q\275\334F\250\274\313\215\343;9#\004<\256Co;\014\202\366\274V\252\276<\232\231v=\333\223\261\273\376*\216\275gE\272\274<\222\r\275\254\n`\2740;\337<\037\326W\274x\212\311\271\334NM<\372\"\366\273\001\304\371;ra\362\274\365C\275;\225O\216\275\371i\007\275\221\036\025<\337\030l\274\200\242\226\274D#\022\275L1\n=+A/\274\276\371*\275\233x\333\274\032Z&=\321\267\347\274\272\355\320<\177\373*<L\266\223<\007\205E\274\235=\207\273#\026\333;-\3249=E)2=+\352\344<\257,\262;\"T\035=\240\370\n\274\023B\240\273*\272\234<` |\274k\247\251<\335\320\026\274\266\365\037\273\240\322\356;7O7\275\245\307T\2709R\227\274\007\366\"\274S\\2=\353\026\363<O\321/\274\036\177\026<y\374\312<U\034?<\300\205=\273\032:\323<Z\300:\274\375\377!<\r\262\361<J\372\200\273\227\0166;\325\315\250\274\234\313\025<\"]\014=y\352\252\274\240\3138=\344!\255\272\'\360P=i\265\"\274K\354k\274\352\007\344:\351\030V=\225\317S<\265\203\226\274Xc\'\273\233\210)\275\376\007@<\344\010\205\272\273\331g\275+}\322\274\222\204|\274)\365\224\274Us\214\274\260\371\017=\272\240\327<\237\177\243=\304\305Q<\340\314\265;X\237Y=V\305\302\273\325|\234\275\214\376\301<6;r<\303\037\007=\212\247#\275\316\3119=\226dD\275\307\300n=\346\037\371<\030\236\003=\333\233C\274~\306\260\273\352\326\227;\344?w<\257\214\275<6\343C\2750\274\304<\034\027\235<\265\330A\274\306\342\265:\351\'4\275\"\252\246\275\206\273.=\256\032\002\275o`\217;\037]\372\273_\373\326\2742M\246<\241\2642\274IY\263<\363\t\270\274\262\223\321\274\303T\263;\366l\333;\'d\264\274Z\316L;\352\322\030=\006\372\003=\301\002\344<\006\202\235\275\001\260\231<=\313\267;\253\356S;\024 \216<8p>=U\236\"\274*\213\010\273\017\375L\274\'\004\243<\027\376\021\275|N\211;\024]\026\275P\211\214\274w%A\273A0\031=\235\240\030<\263\212\325\274\353\232]<Z>*=\223\177><\223I\354\274?\242\347<\003U\251\273\200\264\347\274s\367o\273\032L\201\274\3674\314\274b\220\022\274\366\217\025=\200\251e;\222^\304;~x\215\274\350`\360;: \323\274.\276%<{\326\241<\010 @<\220B\257;\315\251\353\274\241G\361\274\237\352\227=_\016\223\274\302e\253\273\231?*\274K\220{;\260U$\275vLD\275\001\030^\275\335=8;\023\233\234\274\226\304\224\274\367\002\026=\254\347~<\253U)=\350\245\014\275\354T\030=\2678\255=\312\0310<\223-\242\274\202\276q:\320\036\326\273(\021\204<\2772\'\275\223\te<\363Nc<\202\232\220\274\355\245\321<\3475;=+\376\"\2750\356\\\275\'\243\013\274\230\266\232\274v\027J\274\351\006\r\274\340\026x<\"\230n<\023g\200<p\330!\274\201m\304<J\022\254;\224\373\013=b\356\306\274=\264\030;A\016`\272\004 \250;y}\205<fR\031\274\027\317<\275*\020\372\272e\3165\275%b\255<\375\303\304;\227\346\026\274O\343\335=\247\357\025\275\364\302\254\274.\3658=-9\030<3]\317\274\036 \371\273T\304\201<\275\265\217\274\034\234\023<\273\274\313<]rs\273=\201Y\275\341\313\340\273\366\"\215\274\236\227#\274\304v\002\274\236,\216\275\327\257p<\231q\301\274\367r\242\274m\332n\273v6\025=\231\214L<\250\032\264\273k\262\263;\233\267\035=:-S=\242f=\273_~\363<\210\2124\274\303\027\354<g\313\275<\234\3362\275\345~\204;E%V\274Zx~\272o\\\025;n\006\177<\374\220\325<\324 \336\274*\263\364;\323`\367\274\275d\275<I\220P<\327,Q\275\223\2172\2742q\226;\334\357J\2747\2313<fG\'=\001\345o\274\344\361\360<\026\257<\2712\242(=\205\001D=w\276\331\274H\262,=\357S\256\275\321\201\240\275C\236&<n\305\217<q\254\003<\332<\036\274A\226\204=d\367I\275\340\333w=\330\007\366\272\2503\032=\224 \343<\033\253\246<b\217\217\274\206\357\037;9H\003\275\032\244e\274\3615\023\275\337C\245\274\305\225\315<\324\006\024\275\310g\036\275EL\364<V\273$\275\317R.\275\222\372\236:\323=\000\275\306\303\351\273\230\005\330<MU\244=\245\251\352\273\305\240\270\274ZFW\275\272\207\000=\371N\252\272\366m\332\274\007W7<h\267j=\3424\032=\021w-\275\213\250\304\274\304\236W=\203P\366<\013\347\322\274\252\346W;K\000P\275\230\257\'\27570D=F\200\201\273\266\242\022=+\373\336\274\302-\r<,\006\241<\316\2467=\213\252\330\274\243\311\236=\212\331>=w\343\356\274f\007:=Zn\215\274\237\263\217=.\222X\275\030\352Q\275\377\031><Ms\257<\301p\322\275_\224V=\220:\t\274\202\226\375<%\344\"\274\r\031\204=\366x\262\274d\2706=\261\242~\274\313\245]=\013\273\352\272f,5=x5O\274\372y\363\274\223o?\275\324\024C\274\267\275\263\274\351\260\201\275\322\254\255<~w\\\275hf\200\274\235\357_=\022\322<\2759\306<\275\363\222@\275*\017%\275\251\344==d\360q<\256\301\351\274\371r\005=\363\n\342<\360\352\"=\300K<\275\263p\362\274\277RD\275\354\365\302<\252\3055<\223\021\323<#\244\272\274x\212\010=E\3041=\361\364\307<\\\037\255\274\227[\346<S\303R\275cWa=\234\316\251=N\022\230\275[X\334<f\'O\274r\036{\275\031i\372<\267\340J\275:\314\263\275\241\217<\274\365\205\244\274\205\205\2409\376t\335\274f\274A=g0\020<F/V\274\327eo\273\010\243\013=\344.%<\306\031\237<\024\377\257\274\\\205\214<Dj\020\2755ah<\247\225\270<e*\321\273JO~<\271>\253<\230C\365<\334\361X<\361\2304\274\036\341e<\265\274\007\275Ca\267\273\313\276<\274\357\002e<\261\032A;\345c\205\273\264\301\251\274\026\313\311\274\207\251M\274n\313U=g\000z\274\346\210\373\273\006\025\235<;\324\376;\355\317U=Yb\266\274\324R\354\274\203d\237\273HzL=\265;\261\274\376\255\244<\322\201\233<vo\217<\007HH;\020Z\204<\323\207I;\310\251S<\255\006\236\2749\267\014=\315\262;\274\331\336&<\027w\235\273\263\332\334=o\256\224\273\006\004F;\\_\215<\206\2514\275x8\312:W\315+\273$\027K\275=\242\007=\t\2463\275\245\307N;\311\344\257\272|\0005<\244h\237\274\365\253V<\230\323k\2733.B;\022\333\005<\364\243\306<\260\221\373<X\343\035\274wq\306<\030\021@\272\206\ts\274\342\274}=\232\320\277;u\236\365\273!\270\207\274\325\022=<\360\336\255<\037\257\333\274\377\254\r=^\2040=\014\357\371<\300$\017\275\377K\313<\320\361/\274O\217`\274\343\374\336<\307O\016\275c\257\007\275\200\201\235;\326\0048\275\205\322S<u\\W\275\247uF\275\n\033\204\2737#C=Q\'\264<\323\237\331<\001W#\275\277\204\242;\214\270\214\274\360\220 <5\036\225\275>0\350<\r\230\t>h\021#\2753:{\275EF_\273\020\325\210\274\207\213\240\272sk&=F\255\214<N\212\365;\220Q\227=s4+\275\267\223\256<@r\316\274\025F\335<5\317b<\245wY\274\345\356\324<\001\0004\275\024\225\3239\373\365\211\273(9\363\274\026u\357<.\035#=\210\215\373<K\007\242<\257r\330\2742\312F\272\032\001\376\273!\367\r=\352\317\230<\252\217\252;\365.?<#\234$<i!\277\274\245\'\250;\212\215\341<\214e\006\275n\206\336\274E\326&\274\263T\207<&\322?\274R\216\336<\354\364\037\275\254u=\273\031U\210<\021\362\372\274\246\375\234<\217A\241\274z\t\260\271L@\262=\321m\335<\3478\007\275\376\310`=`\214=\275\256$\342=\272\372w\275V\303\240\274\216\2001=u\302\310\274\364\002\247\275\371\225h=\332\345w<\324c\230=Q\003s\2744\220a<?\\\372\274#\031\345=\233-\334\274h\262L=i;\t=\340\020\224=\314\207\200\275\355PW\275\366\212v\275B\313J\275S_\250\274\030\2505\275\007\243\367\274\266\340u\275\247\241\374:\240O\230=\260\331\316<\303I6\274\237~\343\274\203\305\340\274\333\257\346<\367\374\205\273\245\373\022\274\276\322A\273\177\202\267<\363\231\261<\332\255\205\275QR\026;\016\311,<\243\351\315\274\030\0074<\3203\"=\2067k;\33410;v~\374<\325\273f<\321\351y\272]/y<\2475\343<\370B\200<\264\343!\274\212\3064\273{b\244\273H\277\240;\026\033\246:{P\020\275\242v\344\274\241\005[\274\372\360\217\275\316rX=?\240\376\274\245\370\345\2747\331*=\003zg<~\356\365<4\014\002=,=\353\274uy\036\274\364HG=\333\220P<\254\033\221<&.R\275\365\243\311\272sn\025=\234\037\210\275\307\365\266<\354G\271\274\305\3472\272\303\345\270\274\037\240\017\274B:B<\2340E\2742\276E=\326\234\225\274\210k\215<t\223\237<\232\223\037;\362\242\027\273\355\216h\275\333\272\255\273`\365\361<\211C2=\367\225\260\274*qK<k\272\236\274\341\207\036<\024bk\274\321\304]=\203\240;\273\3708\215<S\014\351\274\351\372p\273\234w\362\274\341\314\376;\'\352\005=\322\354L=gDg<\305A\364\273L2\341\274\2560\321\273\312,\001;d9\034=\321\206\235<\300\226\267;\273\315\302\274\330\343\254\274\336V\361<\023\301\203\274vnj\275\304a\335\274\242x\n\274\271\344\353\274\327\017K;\223\256$;RX\212<\263g\322\274\366\346.\274\024\346*<S&\255\274\272S\274< 7*<\177:I=\261\005V\275\344\026I\274\334\346H\274R\010 =y&><P)\376<5Q\255\273\3668D\274s4\233<\027\007\255\274\216\342\311\274L\027:\275\337\304v\273iT\374<tA\207=,\262\026\275n\262\365<\262\207\337:D\206\231\274c\232f<\035\340\204\274=\230\371\273\001\252\241\275C\030s\273\2120\312;\257\2054=\352tb\275\350\301\250=\231\241\217<`\200\023;M\2336=Zj\233=O\362\257=\t(\217<\342;\364;\033,\033<\2753\036\274\2302\205=\275=\267\275Ru\351<V\027\023\274\032l\243\2735\214\246\273\235X\004=\323\335\260<\037\240\217\275\030)\030\274D\211|<\246\251\245<\220\220 \275\177\0369\275!\201\332<\337>(=Ov\225\274\r:5\2759\320\355\274p_\334\274\226\006\242\2749\362\351<\305N\331<\265\362\255\273\345c\323<\264\334\373<\305c\222<\021I>\2745\010Q\274\231\035\330\274\310\334\002=#\002\317<\376\305}<\270\004\234\274\376\363\305<\352\2675\274U\024\257<\344,\343<gN\035<\326O\017\275\355!E=3\375I=\032\340R\275\313\257T<s/\224<y\345\256\274\257$\021<\263\311\010\274>\273\275\275\371\266\234:\212\332\251\275E\005_=\216o\006=&!\343\274\036\341s:\014?)<(h4=/\215\027=\352Bz\273\347\250\'\275\325\262\213=8U\225\275\364\222\231=(\2205<\333\246\005\273\013J\032\275q\245\352<![\372<)\037\226\273t\244\026\275\357\301\366\274\247\0016\274z\025\225<\237\301\273<\305VH\274\367\222\242=\007\372\233\274\3004!\275\003\250,=n\365C<\313^\205<y.h\273,\215\2478#]\262\274\232N\215<=G\013;K(\020\275\351\207\235<~^6=e}\255\275\367 \226\274\322\323x<\275LN=1\031]\275\000\036a;[\370\250\273 \265K=\301N\346\274n\211\204\271\267\230\020<Ew\356=\030\327\256<v\345\266<H\302\241<\305\327\357\274\365\2419<\366\347\201\274\213(\016\274K\242\371\274\014\256$=\317\023\'=\037?\234;Z\373\030;\345\233\\<\260\301/\275-\351U\274\272\332\234=n\270\020\273;\255#=b\336\313\274\264\023\207;\020\341\017\274\342v\036=\013\027\021\274w\004\246<\251\021\215=\200\207\210\274\004j\343\274\203\272\211=`zO<\313G\037\275.\201L<\270\257\377<\240\350Z<S)\222\275\207Lw\274\273\006\322\27345@\275(\263K\275\333\024\311\274^\266\356\2737\236,\275\224\374\336\274\226\317\254;;=\354\274\203\315\244\274\353\244\231<\177\330\251\274G\364\223=\3701\006=\374\022A\274\215W\254;\346E\224<\232\007\221</\357\250\273\247\3119=\366+_<\016\233\307\274\n2\265;\337\231(\275\337jG\274B\026\261<\314\234\n=\244\305\236<\2720\365<\364~Y\274\004\0168\274F\010\333\273\234i0=\22612;:p|;\267$\007<j\266\204\275\2314-<I5\325<}\007\376\274\206\373*<M\006\241\274\205\334\003\274\211\031\326\274q]\037\275\247\253<<\226by<u\240e\274\000\305*<D:\205\275\205\332\251<\024OH\275\352\375\321<\363\277n<O\223\316\273\231\372\260<!\253\216=\306\216\247<\246\343\311\274t\366y\274\000\312\263<\360\262\033\274P#\n\27579x<\022V!\273\366Zy<\325\345\034\275}\233\350\273v-^<\030\304\310\274\375\2028\273\024\242\007\275\022\334>=\026jS<\030\253\373\274F)\352\272U\036\216\274\344b]<\243\2050;+J\r=\030\273\260\274\342U\226\275s\237\355\274Yq\034\275\032\302\027\274\017\004L=\247\356\362\274T\251\203<m\003\377\274\233y\356\273]\241\306\275@\270];\207\365\240;\017\337\025\274\300\026\024=\277\347\001\275\365\224\327\274\230\007\027<{\330\261:Xm\016=\265\272V=\315\272&<J\371F\275\004\233H<\326%\312\274\330\304\250<\351\205\340\274E\257\302\274\225&\217;\3607\231<IO\020<\030\300\330<\026\242\024\275D\267\211<n\216\344\274w$]\275\312t><\306\343\212\273\ns\245<\222:B=\013m~=<\327\256\274P\004\202\273\250\022\367\274\236\372\201=W\316\006\272R\363\243\274\244e\000=\023k\242\274;\343C\274%\311,<\333\300\214\2745\333\r<\305nQ\274\320\370;\2753\021\316\274(\265\251<!\365\353\274\025\021\377\273\t\353\177\273\242\325\005\274\211=\301<=\330u<\321\023\263;\364D\260<\202\243I\275:\246W\275\357\277\234<\330\277\265\273\316\333\271\272{\363\320\274f\353\222<=\347\241<\357\3174:S\005\374\274\224}\304\274\037M\276\2746\202\213<\267w:<\2511\314\274K\356\017<\031z\207<eE\270;\347\027\375\273\252\230\277\274Q\031\305\274\350\\\334\274O\2108\275wbU\274\037\237G\274\225_\210\274\003L \275H\252\030=D;m;\004\345\233\274\313\3365<\200\211,=`P\023\275!j\207:\035\353\223\273\354>/<\365\345\303\274\377\230x\272\256\364\005\274\354\023\202<k\322&=\227\214\305<+\253\313;\370sR<\033^G\274\237^c\274+n\237\274\223\303\203\273\204\205\217;u\215\251\273\200\343\333\274x\214\220<k\247@\275\177\355\356<\273\264\263\2748\226\212\273\2344\023=kE\222;=\337b\274/z\376;v\212\351<\266s\217<\346\326\\<\315\363\246<c\265\277\272s\0147\274\255\317\212<\312\233\230\274\314\'\301<\276\374\002\275\360\345x;x1\242;\344\356\205\274r\214\004=kh\034<\252\026 =f\005\254<\375B:\274\220s\304;\334\250\352<\361\271\257<=\342\"\274\245u\207\274\254\270\237\274-.\226;\351\247\003\274\354)m\275\025C*\275D\365\302\274\240\246E<g:6\275\021N\330<\357\371\253\274B0t=$bG\274\341>\020<D\217s=\375\035S\274\352e=\275o\321/=\2576C=\033\372\t=\237!m\275\334\267\206={\023\365\274\310\t\254\272L/\001=\245Ts<\300\005\345<\0176\200<\002\n\316\274\"\342\241<\266\250\250<d|\010\275\006l\037=\007\362\207\272\226\335\035=\026\036I\275\223\357^\274\035\365|\275\177\302\032=s\3062\275Bn\017<\251\'\270<\361\277\263\274\222P\002=a\341\322\272\035+\361<U\354\352\274\231I\004\275\337\317y\274\004\243\256;\036Z\024\275\215\256#\274\3149\020=70\242;;\303\235< j\242\275 \371J<K\006\211<\356>d<tF\241\273+\231\034=\305\262<\274\261\307\217\272\272\222M\273ca):E\355\251\274kv\2329\303\014\247\274\006E\006\275\312l\273\274\\I\315<E\260\233<\362_C<\370\3370=D\265\030=7\335\023<\\Lz<\361\305\016=\201Yl\274HP.\275u\332\313<&J\222\274nk\343\274\353h\267\274\310\260\265<\320\243\254:\265~9<\350\272\213;H\033><\255\014\237\274\322\202,<\266UL<\221\033T\272\270\226\324\274L?\265\274\006\205#\275\2243I=\347)\204\274\271_\316<7\237\n\274:oe;^N\255\273l\352_\275[\203\231\275IGW\274\247w\352\274n\314\'\275\372\265\027=\253\303\200\274\315i\263;$\366\366\274\204v\346<\312\022\202=OK\260<\350\240\216\274\354\313\247;\370\364\254<\340S\352<\t;\360\274\000\365\244\273\215\255\023=Mt\254\274\207\002\013=\345\"\014=#=\210\2758\3666\2755\211\253\272-\3271\274\246%p\272\356\356\017=\262\256w=\314eG;$\316\372<t\240\334\274\346s\300<=`\213\2729\223\315;\000\332O<\325\221\252;k\315Q<\026\300\220\274:7\300<\327\215\206\274\314\353\367\274\231\365\026;q\357\n\275\177\311\036=\032={\273[\246\231\274m\213\236=\331\364\337\274|\315!\275<e\373<}Q0;\242\254\242<\\\307\252\274wo\315<\213l\323\274\300w\222;M\266\272<\024\037\013\274g\376\343\274/k$\273\206\316\207:\364 \351\274\034\322(\275\367l\217\275ys\033\273\265?\250\274\031r\007\274\207\336\276:\356\3147=0`#\273\234/\313\273\177\277\223;3\013$<M\274l=\036\213\206\272\003b\246<n\222\003\274x\027\240<\211\200\227<5\240\275\274C\025\006\274K\270\252<\362s\025\274\313\262\022=\340&\366\273L[t<\356\344+\274&\311q\273L\020\316\274\002~>\272!`\324<\344\265\316\273n\246\375;\216Z\371;\220A\001\274x\265\251<\364\3152=\314s@\274$\337/=\304u\031\274\331\3746=\317\031 ==\362\226\274l\221\001=\236\332\252\275,3\220\275v\342;\274\371\023\323<\024\331\212\273&\2314\273\030Z\r=\\\210D\275\267\224\271<\032*7\273\266\263\336<\221\324\014=\337x\335<\377h\214\273\355\354x<\323\003\356\274\035\206\210\274s@\202\275<\212\t\274\201\001\026=-8\326\274\247\332\t\275\025\003\\<\240\305\014\275\321\375\021\275\252\010\271\273\013\216\235\274\304\214*\274\215\006\201<\\o\350<\270T\215\274\272\225\002\275\245\344j\275f#\224<b\024\264\273\234\333\034\275T\021\000<\031J\332<\204\311\375<\370]\003\275\\\256\277\274\356\036/=\315\025\203<!JH\274\346\252\343\273\033P\013\275\312\224\034\275\262,\035=\312\337\304<\343\341\341<\236\037\210\274\364<\013<\346\272\001=9\352\034<hi0\275[\025y=\2043i=Sf\310\274g\354p=p\302\302\273\375\240b=\375\350\302\274\352\037\356\274\201\312\345;\005)\223;\224*\353\275X?\026=\247\302\247\273\262\006\246<\031\201j\274\010\352\002==A\226\274SB\200<\240\275\000\275IS\203=\212\232\366<_dA=\223\0354\2748?\300\274}\005\326\274^\355\270\274(\210\014\275KW[\275;\\\251<\007o\343\274\245\313\205\274\322w$=\213XN\275\320NG\275\031\022:\275\233\373=\275a\305\342<\332\244\\=!42\275\374d\210;9gE=\027\216\226<\222e*\274\nM\323\273Z\026*\274f#\200=\217\005\3429\266~,=[qS\272\327Z&<\352\205\367<\014s\006=\317$\217<\317v\275<\361\213\210\275\354\'R=\361\025\245=\\\034q\275\261\2353=\014v\367\272\241\314\006=u\'!;\246\362\034\275y\025\302\275\203$\312\273-\313\237\274\206K\252;W%\261\274\215\330\027=\237\263u< QD\274\026\311\244<9\275\265<,-;<\323(P<\320\030F\27427\312<*\212\024\275\311I\2259>\215\243<\225\214\304\273\222\343\034=\234+\201<\331Q\024=\212\305\253<B\216u\274\261\327M\272\313\344\023\275\374\017\347\273\032\214\325\274!\0005\274\230\326\313;\253Y\330\273\225!\000\274\370&F;G\n;\273\r\300\013=\331$\212\273\261\326\";\014|\026;/\341\001<Z \024=\246\230\370;\014\355\363\274\213PX\274\207\002\002=\314\243\000\275\377\014\211<\315V2<\221+f<o\333\354\273k>\300<F\210\025<|Y\220\273\024.\034\275so\023=S\027\261<\377]\263<\017\232\222\274I\364{=\236\0064\273&\3170:g\"D<UT\374\2742\225\341<\231J\323\274\244\331\016\275\355\365\240<\030R\034\275\014S\2469\241\326\020\274,\237\240\2746\225\202\273\226\303$\273:\3038;=\222J;T\253\316;\r\322&<\354\272\365<\341G\232\273\213\373\264:/\377j\272\370\336\321\274\223m`=\n\307\257<Jq\320\272=\203\014\2740+J\274\030\257\204=N6\302\274\341u\215<\247\031\241:I\232\r<_\316\341\274\017\227i<\244(&<I\005\t=:\337\226;\335\207\252\274\226:\347\274\330\271\217<\260\005o\275(R\010<h\255\016;Z\2727\275\334\003\241;N!\213:6\013\251<\025H\274<\364\230\240\275qm\265\273\330x\343\274P\177&<C\026P\275\216Y\010=\347\302\246=\016\260\022\275d\372\223\275jc\233;\200\246\003\275\377\213\355<\367u\007<\232\016\363\272\211)\207<h\004\227=\016\0014\275\244,\340:A\300G\274\355\025\275\274&$\253<dh\177\274\020\264d<0\344]\2752%8\274\321l;\2729\303><\201\220\021=\034\3166=>\262@<\374\355\232:\017K\004\274B\317\264\274\001\265\035<lt\356<\311X\203;\326\370H<\243\357\325;\317\035I<MT\306\274E\253\003;U\024 =\276\364-\275\221Y\017\274\346z\326\274\'h\n\274p\215\264\274\004\306u<\362\310\032\274\377P\210\271<>\313<\344\272\025\274\335\256\313<\021\376\241\274w\221i\274W\226\215=hi\001=\255&\025\275Ws&=\034*\032\275)\344\310=\263;_\275\240N\316\274;\213\246<l\367\'\274\022\207\203\275\334\034\036=h\254\236<Y\265M=\212\204\302\273\036\213\356;\326\252\337\274\255\326V=\271\277\036\275\204\323\022=\322\227\267=\037\277l=j\247\003\275\203\250\217\274#\347\016\275_@F\274\231a\027\275\250\006\337\274E\037S=K\324\227\275\330I\336\274\3673\033=\013\244\230<\3275\327;\2253%\274\3232\r\273\215\016\332;\242\342\223\273\375\021X;x\035;<^p\300<\234\206i<J\344\221\275\014\201\313<\'\305\254:\203\353\263\272\367\355\013\274\275\325u<\006\017O<\023\334\262\273e\265\010=\335\332\263<\201\234|\27396 <\270\340U<\315W\233<\245\350\026<\031\322\211\273\366\263\323\274\261\002\203\273\007\334K<I\021\216\274(T\232\2748\217\272;\211`p\275\303\372\253<\033\n\010\275\014\214S9\022%\004=2Ud<9i$=\265*#=\374\367\372\274\336_i\274P\366Y=l\303\222<X\362\202;\3067@\275\277Bv\273\374\310\343<EDD\275\201Kr<\237\037\212<\337\234\351\273\222oh<\354\233\356\274\221\221\006\274\361\223\346;\270\243F=\244\201\016\275\351@x:>J\030=852=\232h\366;uN\034\275z\341\321\274\037\317\271<\303\241\037=\337|\343\273/\375\351<\000!\340\273\370\325\225<\254\211\003=\332\221\004=\372\r\033\271+\261\243\273\317cC\274\256\301k<\037\027\007\275\324\327\037<g\232\342<\236Y\237<\211y]<q\234=\274\211)\204\274oS!;=\353\203<\2534\252<,\n\031\274\356\271N\267\215a\003\274\026K\264\274+v\310\273\355\022\272\273C\243]:\232\347v\274\031\277q\274-\367,;\3151c\274\271|\337;\250@\006<uJ\257\274s\034 <\177/L<\236\236)\274\246>q<A\343\262<\201\356\361<C\020\n\275,k\020<\311\030\302\274\306\376-=\026C\256;\373\204{<\365\251\307\271\231\226\360\274y\t\233<\2176g\274\362U\354\274\023\202B\275\231!9\275\330\222\325<BA<=\273>\255\274-~\t=\034\256\352;\376i\367;r[Z9J\203\233\274\347\305b\274P\204\214\275\n\216\206\274\311\277q\274\307]\373<\377\230\211\275\322)\236=\036\313\010\275\010\213\255\274\000^\345<j\304L=\2537o=&E\r=\333\241_\274$3\010<\241\356\002\274\314l~=_\200\235\275\343xT;T>\242<\037W*\274\016\252\023=8N\326\273\202E\'\274}\030g\275\324\327\032<\371;\272;7\014:<s\301x;\336\"6=vx\216;\020\234==\231\361\301\274\267\262\243\274TX5\274\311\313\024<\022L\016\275\215\035\023\273\031\013\357<W\266\324\274\271\224;\272\372e\253\272\360\373\306<\321\027l<4\326\\\274\214W\247;\241\325p=\240\306{<\343\305Y<W\240\030<\016d\r\275\222\004w\274N\262\025=\324\331o=2\016h<M\354\305\274\334\002\234<\177\351\227=\224I=\275\206X\027=\253\320\302\272\022\237~=g#\t\2757\037\205\272=f\335\275-s\254\274\022\014\365\274\335\357\252<\316e\007=\001\352\211;\242\323L<\305\305\205<\341.\335\274\245\337\002=\375\333\033\275\004(\256\274#p\201=\335\024\205\275\211\303\201=S=#\273\334l\t\274\004\340+\275\273C\016=\n\006\271<&Ua<\340\225\n:#\271\246<\021\312\223;\346\303\267\274\366\266\225\274\3127\342\273\332\241\002=>a{<\032\002\223=\003\023k=\035\271\337<\214\026\020\275\343\304w<\244\310\260\274\035)\016\275\034p\007\273b\t\270\273\351,\324\273mh$<tY\024=\223H\253\275\037\036\251\275\212\343\200<\227\334\032<\370?:\274k\025\017:\364]L\274e\202\245<\261=\013\275\326R\361\274&\261\207<.\254\265=p\022\277<#\n\262<?}\010=\314\tj\274UPF<\360\002\201\272FS\364\274\337\315\261:\241\355\277<g\3300=L\217\270\274_\027\374\274\241\002\217<d\0043<\241]\251\274\255~\225=\335\022\222\274\2666$<\025k\2639\3142\217<\033\307\324\271G+\361<\325\257\250\274\270=\225=*.\224<\360U\031=\322\353E\275\253\227\265<\010y\n=\264\340F\275\225\375\202<K B<\316\001\231<\366\275\356\274\251r\276\274B\304\237<\021\376\036\274\3116:\275l\367\275\274\220\203\021\273\177\000\306<9\313\213\2749\021\334<\220\022\006\274\221\253\033\275\304\215\264;\325\346\371\274\314\006\363<\020\231E<\276D\371\273\241d\313<\271\310\r<\375\025|;\001O\231;\306|\366<j\275\300<\255\371C\274\311\360[:\221\n\020\275=\201\306;E\007\327<\240\271?=\336i\025\273\223\003\335<fq1\274\204\356\230;\356\325$<\236\211 <\001[\313<8\374X\274\207\025\240<?UG\2759\265\306<U\307\313<dV\346\274\344\227\260\274\002\005\244\273\262\316\022;\224\256\260\274\026+v\274\366t\345;O\220\276;\240c\202\274;o\324<\23304\275x:i<\017\217L\275ZYh=,\\\215\274\330m\315<\370\t8<7\370\315<\277$\374<*\345L\274\354\3472\274\271e\207;|\020\325:l\320\275\274\'O\244<\322\317\266<N\364\203<v\235\306\274X\335\261\274\264t\366;\355\346\375\2730F\224<\240\317\356\274\234H\204=L\020\214;\243\235\342:\353\322\232<\337bT=\016\027\217<W\035\230<\000\331g<\000\203~\274\320\203j\275\244<\013\275\3311\256\2737\366z;\343h\371<V\017\231\274~\363\034<5LJ\275g\340\032\274H\306E\275\021K\202<y\324\200\274\252\212\260;\024\373B=\252\353\206\274\3429\265\274\204\246\316;\213\262\210<{\350\333<v\273\250;\001a%\275j\227l:?8\352\274r\335v\274\025\327P<\256&\203\273\023\350\027\274\017P\000=\3025\253;\031?|<\370\014\221<\\\3479\274F\023\177\273\357G\325\274\233f_\275)\327\206;0\026\272\273P\366\344;\316\260\035=\317\364+=IS\253\274\235\364\276\274\335+\335\274\355qk=\323\027\251\273\335_\331\2725?\037=O]y\271Yr\232\273c\266\212<\177\257\000\275\365p\251\273\232\220\245<Q0\223\274\245\347\361\274U\202\306<+>\360\274Z\345\353\273Oa\200;\376z0=\274\035\026=\265g\377;\211\262\213\274\224\013\334;\376\240-\2755=L\275\237\301\206=\255\352!\274F\242S\274\365\004\257\274\351\324\360;\220\350\205\274\311\025-<\264\316$\274<\255\315\274\253\353\256\274j\246\323<dQ!\274>;\036\275(\257\372<\0165\002<\360;\344<\243%H;\007\3759\274\236^|\275\206C\342\272\247\344J\275\202q-\275,>\227\274\376\2107\273\332\207\034\275] \004=&1W<Fu\3019]ER=\245\323\321<\274Z-\275+p\223\274\314\213\326\274\336h\274<>\215\242\274\363\364t\274^\270\276\2749\2400;\352\334\372<h\376\372<\254\352k<e:\243;\316\rm\274[\002\201\274\257\025\271\274\340d\334:6~\352\274\260\023\272\272\014\321\350\274\"\365\r=\000\304\273\274\315\224\365<\255\330K\275yR\347\273CN%=\331\273\231\274KU\263\274.\323\002<\364\033\014<[t\351;/\350\177;\207\t\206;e\023H\273.h\357\274\203\177@<\221\243\013\275z\307-=\203\246#\275\373\002\211</\360\242\274\365^r\274~\236\014\274\033\n\342<\347\275\r<:\363\022=s\356\375:\333\222\311\272\253<\242:\211\366\365<5\"\244:-{\252\274e\203\021<\364.?\272t_{\274Hp\"\275h\3565\275\026\032\230\275\037}\006\273\014\256\n\275L\333\371\274\224\225\266\274\310\212\351;\275m\317\273N(w<Qm\006=\376_\2178\205\371%\274a\2177=\233iY\274\303\005n<\n\366\375\274\216\265u=\317\017i\273\236\317\030\275\242\344\203;m\334\251<\213\360\224<\254}\303\273#\325\330\274\370\357L=&\220\033=\221\002C;\326$3<B\035\204\273\323\202B=\036\236:\275G\301\261\274\235\270\275\274\313+\017=\324\361%\275\370\311\211<\315\2443=wi\342\273p\000\312<\022\241&<\017Q\260<C\212W\275H\213\"\274\322&\327\274\330\352\217;\t\203\036\275\014\025\257\274\221\221\361<\331\317w\274\272\310\202<wPt\275R\371\036<\257\305\262<\001M\322<SD\346\274\036\357\240<\267\260\266\272X?\251\273r\377X;\351F\006;\337y\222\273E\251\320\273\367\340\263\274*\336*\275MCB\275\274X\212<\246\325\257<f\356\007=e\373?=9\272\320;\215\241W<\347\3376=#D\014=\232p\324\274#I\026\275\010\266O=\002\357\272\272\320h\240\274&\235\313\274\323\347\232\273\253\211E<ED1<\275j\377<\251\246\254<DV;\274\312\024\314\271P\276\231<\271\266\246\274?\265N\275#\200\312\274\250H\031\275\364\301\255:F%\023\274{J\022=\366\037\";\226\211n<){\266<\030\1775\275\240\331\244\275\200\321\205\273\3401\241\273\214\264u\275\265C\214;?\251;\275A\036\313\274C\323\323\274E\026^<$\215\352<qU\264<.\236\210\274\257\013\021\274\215k\242<5_\353< \010\261\274.!)\273\375\373\340<\003\226\256\274\212T\251<I^\232\273\276\222k\275\375\005\t\275\354\2051;]\333\222<f[\365<\307\337`=\341o%=\\\010]\274\266\000\251<\230\326\254\274{\201\230<\346\260\335\273\337\326\217\274\376!\373<[\312\360<9\310e<>\"\236\274$m\241<9Y\037\275\rzh\273\326\223\027<\333r\345\274y\2078=\024\253}\274\006\345\275\274\211xA=\372\265\263\274C\350\003\275\360\362:<\250O?\273\023sl=\315\233\027\275\034\215\177<\220\207w\274\345\370\300\273\242\025|<%|-\274\241\315o7\336t\244:A}\377;Zg0\275Qi\243\275\315\207\204\275\216\220\276\274\347\312\340\273\367\237\304<I?\373;k\273\016=\247\226\021\275\315\000\253\274}\367\016<f\356\177\274\tg4=\301\260@\274<\017[<\354\342\001<i\004F;TU\356;\204\245\025\274\216\037M\273I\310\'=F6\215\274O\357\254<\020!&\274\032\\\376:\2207\373\273A\372\272\274Q\0340\274\215\314\201;\362\031\350<\241\021\201<\033\033\004\273\013\375\272\273p\332\177<\202\205\017<\305v\016=;\334M\274\224\026\345;^\240\253\274\317\203\005=\236\326\363</1W\274k\244\316<\255\0078\275\371$d\275\005k\010\275\221\313e<Z\215\244\274\325\202\005;!\201G<u]J\275\224\235\351:_\333%\274\253\312\247<\300\216\245<L\026\210<\313l{\273)l\234<m\205\301\274\310v\\\2745\350y\275\005\233U\273\034%A<\204;K\274\377{\t\275\212s\325\274\301o\322\274\302k\263\273\256\242\202\273b\254\362\273y\"\227<\362\221\006\275(\221\300\273Gw\370\274\315\036\242\275\253\355\025\275z\332\006=\213?\264\274|\341k\275H\021\204\273\367o|<_\355\231<\366\351L\274\t\037\267\274o\213\325<GY\023\2740\017R\2742$\350\274\276\315\n\275\215@F\274Rc#=\257\271-=`\353&=i\223\215;\316\213\035<-\021\237<\000<\337\274\336\003?\275\355\333\363<\354\267/=\010\233\345\274b\021\204;\340\225`\273&\374?=\r\273\214;^\316\345\274A\3470\2741\017\272\274x\020\323\275\024\214\001=\033aq\274@\025\344;\324\035v\274*a\270\273\030\205\260\274v\220\220\274\335\342I\275U\364\212=\331e\036=(\265\333<}\316\033\273\026X\326\272\273\223B\275(\000\r\2754\210C\274\256f\030\275Oj\000=\303\275\330\273`\202\003\275h\021\016\275h\336\376\2742\232\312\273\236x\023\275\3254i\275\235pZ;Q/,\274?\302)\275@\266\225\2743\343\337\271U[2=\255\037%<pe\212\274\211\210\244\274P\0253=\206\034\032<\245\007\331<)\022\224;M\371\357\274\201\026I=\352I\307<CZ\n<\340*\342\272\335\035-\275\000\257(=\244\225\243=\237\330\230\274F\nQ=\221\355#\273\276\017\275==v)\275\301\274\244\274\370\220r\275\031\261.\272.\250\n\275l\336\250;\253\'\036\275\207|\345<\304\261\224<\'\362\006\272V\221\246<:i\225<`f\232\271\343\352\204<\211\313\273;f\220\323</q\022\275w\215\307\273\272yZ<!BN;]\227&=B\227\201;\020\3074=\235\303\304<\201\013\017\274\347\"\242\274}^\320\274\214Y\256\274\205\205\221\274|r\005\275\372\262\261<\253\266y\274\230\024 <> \323<$A\250<\375\244\245<\274\313\323;\005X\010<\317\300\250\274\221\211\001;\033,/<e<\006=\204@\010\275\207\030\024\275]%\027<\355\000\354\2740Q\333;\271\363\002<p\212\225<\322\225\302\273\2056;<N5s<\341\242\235\274\r\250\031\275=\314\343<?\215\331<\343\371\327<?\223\254\274\247U\315<v\n\033\274?\265\241\274d\364\204<\253\313\350\273\237V\030=\305\303\000\275C\365\310\274\22012\273\227N\232\274o*c\274|\004\210\274\263\017\004\275sA\343;\003\036T\274\341\367\372;\262f\200\274\255\010\237;\353qM:\346\t\024=\314\215\232;W\315\365:\306W\260:g\254\026\275\352\025K=>\217\017=<\241\270<9\233\350;\002Z\330\274T~T=3\025\204\274I\312!\274\224\343\t\275\014\231~\274\'\016\216\274\224\250\027<]\341\330<\335qs=\310\200\010<m\353\334\274}\360\004\274\206\211\225<\320\372E\275F\000)<l\361\027=\246M\355\274\346\246\3149\031\364;\275\370\225j\274\207L\362<\254\217\215\275\r_\032\273S[\n\275\265\325\250<\007\207P\275\243g\026=1\373\266;\265\364\230\274\037\t?\275\013T\022\274I\307K\275\2712\363<\256o\'\274\006-\3249\177\026\361<d0\"=\320]!\275\315\352\250;H\213X<\252\362\200\275\030\224\000=\227\322\232\274\006e~\272p\020H\275\240P\240\274V\203-\273v\337\326<\025\3512<\353Y\025=\'\005\337\274m\362\305\2749\272\216\274Y10\275\277[{;\227g\332<\031[\003\274I\252V<\206M1\273\222\251\230<\201\225\225\274\037\010/;9\010\r=\270o\204\275y|\316;\306\223\"\275\212\321o\274E\220\227\2748\360\033:\267\341\033<\021\2664<h\324\350<\3138\004\274\342\230\343\273\255\302\r\275\364\240?\274\354\035,=(\222\350<\376\203\005\275\361\217\351\274\025\214\031\275vT.=BRH\274\332\276p\274~Y\305\271\225K\313\274H\355\223\275c:\240<\227>\332\273U\312u<\364%\224<\203\377q\273\367\031\002\275\345\231\201\274r\320M\275\321T\356<q2\322=\333\233\230<\355mp<2\227\225:S\372,\275\204\"h<\234\341\330\274v\273<\270y\257\206=\021\251Z\275\240\031\342\274\273\370\330\274\036\260&\2736\241\250<\300B\245\273\237K\003\274]9\'\272q\177\010<\255\205\315<\033\321P<X\371\n<\214s3<\337\355z\275\347\231\002=$\265\230\273\276\366\036\273\265\177\252\274\362n\241\273[n:<\247\r\305\273\344\257\032=\267o\r=e\263\203\274\\\177\313;\352\355\254:d\317:=\375\002J<\252\336\252\273L\3757\275\303\350\004\274R{\037<\210H\303\273\3328\330\274\264q\355;?\333u\275Fq\304\274\305\263\322\274\303\350\322;rt\253<7\027\217<\221WG<\2614\302<\367\327\263\2744l\355\274%)\377<\316,\255<\341\277\035\273\347\374\037\275\3167\212\273\252\016\256:|\264\260\274\213\253d\274\254\017\017=\240\365D\274Vu\254\273\032O|\274Y@=\275^\025\024<\247\017\020=\276b\270\274C\347\306<\004\211-=c\357\217<\314R\\;E\344.\275J\321\347\273k\023\203<\303s\020=\353\244\350;\362\376\327<7\267N\274\371\302\260<.#\206=|K];\326)\375\273p\377@\274\017\330\257\273\257\316\234<)\207\270\274\375\264\271\273\346/\210<n~\031;m\341M<\247\352\242\2747\323m;\250\265\216\2738\rR<\207\027\251<\227\272\270\273d,\006<L\376w\274\346\202y\274\350\373&\275\227\'\224;\200xg=_\207\375\274\250\006\352\274X\225\273<\323`\277\273\024\221\232\2739\264\016\274\217\345\272\274\277\314\005;\005\273\277;c\317\004\273.C\316\274\260\267><\351\275\200\273\254+\002\275\333\272^<\251e\003\273\010\216\216<Y\023\327;\212Zl<\034\2626<\037\027\260\274\254j\256;&\321\360\274\326\'h\270\034\341!\275\033\301\224\2748\315\206;\004\220\314<\t\\\203\274\034\014\213<4\320\334;\333\202\212<*.E\275\372w\303\274\r\001\367\273\313\312\217\275\365\036!\275\366{\016\2746J\310;\221ea\275\206\276\274<^a\216\275\343Aj\275\235\255g;\326;\234<\231&7<\256<\265<\305\016\355\274F\340\n=M\000y\2748\202H=\014\343+\275\036\362\343\274\3457/=\347\351\226\274V\'/=\365|f\275\3346\251\274\335\222\030\275\234\365\030<\316\263\216;\252\204\254<\363[f=\214\275+=jmo\274\332\302\314<\332\362\220\274\324\261\274\274\261R\215;\000\266^:\204\350>\275\336b\261\273\353\302\243\273\357\272\206\274\245;K\274\310\374.\274j\306\205<\'\213\352;(\340\316;\205\305\226<\214\355S=\347\031\322:%\324\265<V!M<\375\252\360\274\364\376\274\274\203\322\375<JQ\304<|6\224\273\375M\352\274F\037\010=\002Z\223=\211(\351\274\263\366\007=\206\352?\274\327\363\314<F:)\274{Xc<oH\214\275\254\332\206\275\031\013%\274\364\034[\274\006z\305\274{J\220\274\356\316\310\274\335\272\350\274\207\212\234\275\342\225\014\274\0067\376\274\273\325_\273\275\261\033<F\013Y\275Ac<=\241\204y<\241L\371<6\357\367\274\365\357\206;\025Ir<k\222\270\272)\316\260\273\303\327`;q#\340;\326\277\244\273\014o\311\273\250n\214<@&r;B\210\032=\223\313\376<Rr\241:)\016Y<xHm\274%\207\275<i\227\014\275t\r+\275]\223u\274C\031%\275:\000\205\274+\r\232\274\005\231\233<\236\003~\275\362\255\300\275\373~\n=y\257\035\275x\300\221<\001Sc\274\321a#;3\227\361\273\271\333\026\275\347\306s\275u2\t=\231\343\024=\\\210\340;>Qu<K\373\010=\004\242\225\274\223\260`<\026\302U<t\210\026\275\216\376$=~D\271\272\202:\027=!\3373\275\366\030\203\275\343:\033\274\375c\2209x\0345\275)y\351<~t#\275\020\0307<\313m\004=(\330K<\333T9\273^ <\273\\\'\366\274\221)==\252\341\022\273G4\376<\252\316;\275\2527z:u\022/=4#\013\275r\037\344<\327\200\017=7i\021\274!5\230:\"x\023\275\367\374\014=\261\260Q\275k\316\"\274P I<\n\355{\274p:`=\004\213\252\274\263\363\234;|\025\376\274!\203?\275\3154\210\274\271d\005\275\212\302\270\274o\r\372\273\306`\253\274\024\276\017=\n7u\274\231\351\256:\343 \200<\315\350B<vj\004=\0326<<rs\242\274\227\272$\275G\362\274<\246\027\346<\323\032,=\336\225\373\274\326e1<\035gE\273-\257\206<O\2430<*\277#\275\344\341\370<\265>\013\275\025E\013=\266\220\316\274\364\037\364;\003\343\304<\036\316\216\274\244a\031\275Q\036\306\274i\000\206\274oB\364\274[\004\316\273\013\207`;2\243\244<\364\335$\272\200,\226<:\320\347\274\327b\022\274\354\216O\275\032\205\021=\346w#\274\276\007\313<\320\024\360;Z\271\230\274M7\343<9\241\220;8F\362;,x\257<2\241\235\273qI\276\274\031\313\232;\360&\265<^;\030\275ky\367;K\371\004<b\231J\273\n\006\300\273\t\232\277<\034r\177\275z\237\001=o\376\220\274w-9=@\006\035=\332^\331=\\\1773=\302!\316<P\336$\274\230\306E<\032L8\275\262\335(\275\020\362F=\000\302\001=F\001\037\272\234\212\313\273\365\016\222;\016N@\275\264\232\244\273\001W\276<\230\314\023=\210}\r\275\355\343r<\256\211\"=)\276\260\272]\"\377\274\251\337\002\275\327g\363<\253\341f<T0\312\274\374d\371\274kY\332<\017\374t\275?q:\273\003k\001\274M\262\244<\325\3234;u\t\314<h-\321;y\220\242<%\210\000=\301\334\276;p\361\303\274\302\220\256\274\241;\362\274\021\n4;\2709x\274*\177\354:wX\006=\265X\350;\245\257\236\274\300\031\252\274R\255\253\274t\\P=\221^\325:\325\363\0169\177\233\026=\245\222\205<\324\212n\274\221]\034;\222\205$\275\264\022!\273\214\314\017=\344\000\350\2736\372P\275\201\362\340\273\333\223\r\273J\004;<\006d5=\266[1\275\314\346\307<\035\t\310\273\355\212\276\272\325\2706\275\010\262C\275\030hr=\260\357J9\262u?\273/\366\216=wm\213\274\030w\276<\336\272F=\377\326y\274\037&\036\275g\236I\274/\247\306\274\3249\203\275\331\210i<\250\336\317\273\253M|=\007\237\255<\326\350\333\274+n%<U\005\213\272B\230\305<N;\327\272\303M)\275\204n\222<\363\352k;\324I\201\274c\273\235\274Z\264J\274\353\202z<Gh@;\320\000[\275\001\004\001\275\027%\355\273.\303\340<\204\314\321<\031xd\274U\271M=\361\207G\2755[\364;nm\241\274\324`>=<\302\013\274&?\252\274p\200K=nT\302\274\266j\303\273$\\D<2\302\010\275\220\237\025=\256\t\025=\207\360\021\275\364~\367<\320s\263:\306go<\212\325\212;A\324N\275X+p=\270{\325<a\353\332<\n0\304\273^+\017=\254\224a\274\234\323\006\275\026Pr<\031Wf\273\000EE=\357\327\200<\304g\r\274\225\214N<_\277\262\273\330\t\261<\2012[\274\316>t;\310\001\246\274\215U0<d\256\035=w\246+\275\215\373!\275\227\231B; \300W=\221\032>\275\332\"\220\273\207\026\263\274\031c\312\274,\323N\273\370\033\010<\312c\212\274F\r\330\271B\323\225\272\2154\221<(\367\203\273s\200X<\275HX\275\345\257{\274\231\274\341;Jj;=\245G6=#S\233\2730\231\272\275\207\240\t\274\033\263\371\273:G\210\275\352\310c\275i\245\023=\204\250|\274\244\233-\275\230\313\376\274TZ\227<\207\343\330\274\004\350\205\274\334^\222;@\020\254<p\265\334=H\213&\275\340\020\346\274\264\241H=&\345:\275\247\224 <\205\352\322\274\346\224\037\275\220\314\330<\214\232:\275\246\243\365<\253)l\274\035\247\221<\357\327\245\274\267\002#\275\211\365\344\274r\354:\274X\226m\274QUB=/*\240\2730A-=:\322\202<\266\004_=\033\243\021=\350\312j;K\017\211\274\305B!;\243N\037\275X\314m\274\246\001\223\274r\201\226<\2659X<x\275H\274?\260D<@\336\366;\250\262\202;\203\333\205<\357Ng<N\305\304\274#\306\177\273K\351\232<\276$\254\273H\203@\275\016\272\034\274\305\205)\275[5\214<F?x\275#X\266\274\036\340=\274G$\212\273t\323\264\2744\365\350<*\233\350\273\332;\253<\333=Q<\325:?<\262\323\333<\331%\t\274>D\233<\351\226\332\274\334\204.\275\275i\335<\321\315\230;bt\263<\216\036@\274\021\327U\272[TB=+%\002\273x\336\312\273S\217,=s\311*\274\017\214\'\275\322\330=\275@\221-=\364\200\261<V\021\315;\215\201#\275\232\260\350\274\014\266v=\2066\026<P\351\037\275x\373\213\274\226\377G=\214%4<\305]F<\"N\003\275\315\214\277\274\213\013\322\272\260\270\035\275b\320\027\274\037y\243\2744N\336\273\232v\245\274\237<\027=\223\361@=U\266\370\274\302u\342\274\265O%=\306\204\230\274@M\205\273\345\001\226\275\351\352m=4\352D\275D\031z=\347\344\247<\235\024\220;]\264\253=\337v\254\275\273\352\203=\354\236I\275\235\315\315\274;\304Z\274\034n1;\373K\223\275\322\037\322<\001\177y\274\005\312\004<\352_}<\272XA=$?\275=\234\3200\275\n\244\236\274\312\365\246;RS \273\361\033\253\275\246\262\233<\207\016F\275?\r\031=\036Q\227</\354\016=\000\"}\274\016m\025\275\352\231q<c\302\000;\215\302\001<}\231\277\274\267\026C\275\340\3477=\302yy<\272\"\225<\307\322\266\274w\023\034;\223\307\r=t\252\241\274 \000\242\274\r\246\343<^N\031\2747\233N<\007\265\301<|\351v\274\343g\340<\000\237\0059(\341\265\274\344MG<4\255(\275\216\361\036;\014\235\347\274\360;\265<\277d\013=8-E\275\234\014e;RK\360\273\373\242^;\322\266\203<l\232\300\274\237\007\034=\364\221\216\274\233\305 <\177^7<)\250\201\272B\266\025=\003\004\276\273\255i\204=\234\324\370\274G\255\007\275\354\027\r\275~\022`\273\314\321\250=\216b\016\275\371\265\001\272\032\347,<+O\315<\3062\362\274%\263\002=}\203\373\2746\002\235<D\032\205\270\300\241\'=?\212\373\274\231\206\262\274B\342\342\274\005\232\201=\344#\033<\021\320\t\275<+\375\274\346\257\343\274B\221\251\274w\357\223\274n\235f;\311\201\"\274\202\020\213\275gx\226<\322\031\002=\3257T=\353,e\274\352\352\033\2755\240\333<\244`a\274\n*;\275%\246\340\274\261:\204=\020\241)<\372/*\274\311\316\241:^{_=\203X^=@\230\221\275\370\017$;\310M\234\274\352\307\305\273\"\203P\275\340\260\336<\244\312\215;\211\353\035\275\2665 =\212+\326<\350\347\013=\222\235f\274\354\372\025\274\350Q&=W\353\345<\207\034\255< \367\354<\346\206\250\273(\360\010<\323\263x\275\022-Y\274\333\251D\272\331Ae\275\327h\247\275\372\004\270<\261\273\3268c+]\274\277\010\330;M\320\267<\205H\326<^\372\255;K\021\2719\304\006\350\274\347\253\0239\274\204\262<\201z\362<\337\344\351\2744aK</\3459\2757\2563<\323\353\236\274\036\325\017<\366\3540\275B\303\235\274\202~\024<{\216 \275\313\365T=!\365\215\274\315\207B;\024\304*=\316\006\240\274\345\277q=1q\263\273\223\351\211\274\312\254\017\274@\207q<J\3566<\\&\037\275\315fI\2759\236v\275\314\303\026=\177\366\226\2731t\214\275\364\212h\273\316nE\274\225\003v\274[ \352<fd\235;,#\210:\272\264p=7-@\275c\346\233=9&\032>r\014\347\274\330\215\212\275\225|<\274^\320\336\274\353\303\034=<4T\275\344\305x\275\310\336;<\353\231\306;\301\314\026<\201\246\206\274\250\020d<riB<@\261\243\273[\243\334\274\t\347\333<\200\213-=]16<\300\321\013<\031\344\217\274E\374\311\274\005\t\t<~:\001\274\312(D<7\273o\274\017\021\r=\342\366\352<S\025\316\274\376\003\024<W\021d<\322\033\223\274x\n_\274\336\370-<\332Su;<\357-;\325{\034<[\020l=$\017\211\275*Aa<\321\334\326<\237R\267\274\2377\007\275\211S\010<\010\273\321\273Q/%=;\322\212\275Pu\016\275\303*\212<\375\371(\273\254\346\360\272\334\333K\274\361\251\345<dH\321<\332\353\200<\"\271U\275P`8\274\246\037x\274-RZ\274\324\275\026<\034\263\203\274\230g\030\275\275\221\243\274\362W\322=\027\030\374\274\222Cb=\332~\004\274\322@\243\274n\305\302\273\275\342\350\274\203;\031<\354\360\225=5\032l\275&\n\024=u\024\010=\337\224_=\272\"\010\275\214,\360<\307\027\322\274\031\312\216\274\026\035\223;kh!\274\351\\\367:\231K\234\274\222T\202=\250\300\347\273\352\356\005\275]\3367\272\313m\244;\370&m\274\261\217\315\274\360\322\004\274\020p+\275d\303\023\272\203\177N;\202\344\214<*\254\253<\232\231X<\003.\245\274\r\261\253\274K\3041\275\237fQ=\214\370\'\275: 2=>\351\311\274I\346s\275\013K&=N\003w\275\314]r=+\331\021\275\2234\247<_\363\300\274\227\322\264<D\007\265<\242\330\373;\263w\274<@i?=\032\301\262\273\220\037\357<\226\224m=\031%9\275\323\321\357\274.\034x;)Z\346\274\3239\244\275cv\347<\202\233\217\273\002\346T=m\233\005=\367\246\316\274=\032\020<\377\375\000\275\203\026\372<O\266h=\020#\006=\314n\261=\212\225V\275\025\2742=\007R\232<@R\207<%\2262<\323\001)\274\263I\313<\356G\366\273*\376J\275\346gV<Ell<h\213\206<>\251\006=|\322E\274\276\353\214:#\376\366:\206\266\265\274V\235U<a\333\004\275\312\225r\274H\266\236\274\201:\224\273\375\236:={\332b\274l4\263<&$\225\272\345H#\273d\255~<\351\202\211\274\031\321\256;\205\024\324\2746`\274<5)\257=\356\246\023\275\274B\341<h@\357\274\234,N\275\t\353\034<oT\250\275b\370\315\274\233S0=\315_\013;\377\265\233\275\305(P\274\274\206-\274\034f\220=\371\205L\275~\221\277;xT\273\274\327%\014\274\345\200\030\274\211\264\202=\304\210\000\274[\344\312<\200\361\270\275cYJ\275\207\215\350<\007S\033\275\257\\N\275\317\246e\274\320\300\201\275\021J$\274\223\307\272=\244\313\005\275\026\227%;6\373\001\275N\340\000\275\037\331[\274\200\314Q<5Ja\2740\017\231\274\341\n%\275+\377\310<\376\361\006<G\324\244<\227\300^<\006b\323<_\336\306\274:Yg<U\327\312;mh\227\273\365\300\000<\347m/<Z\355\305\273\013\200\251\274\344\037\013\273\327w\267\273\354\364\245<\'\366\271;\344\367\211<t\246\225:\305\302%==\372m<\275\247%=\211\235&\275|\353\240\274\350!\006\275g\301;==D4<\312\305|\274\201,\260<L\256\242\274\006\207y<\302q,:\375\300p<Dn\023;.\215]<t\014\002=\335\353\225<\036\036\204\275.\347e<\341<\255\274m\360\033\275\223U\205;\226\300\022\275\261_\307\273?\337\221\275\016x+=\305z\'=\353\270O\273\010\367\253<U\255\207<v\347\333;`\245K\273\256\005\025\275\312Z\335<\323Z\215\275\360\027\033<t\371\314<^\244t\274p\361%\274\222\202\022\275\231K\014\275\370\353\242<\206\032\201\275\030\273\271\274\325\261\207\274\177\246\245<1\305R\274\257\224{\2734\201\236<\322@V\273I\322\303;\311)/\273\n=\030=\030\243\r\275v\030\275\273\317a\237\273\305\264\260\274\354\310t;\376\266\247<\243\030Y<\344\312\340;\205\241\230\272(\357\257\273\021Je<\345\256\235;\251A5<\206\257\002\275\276\202q\275%c\321\273\317\315\352\274c9\335<\376\200\252\274\352\230\025\275,v\017<\325\216\343;\004\016\024<\370\004\222<*\023\000\274\334\375\210\274C\222\035\275\025\221\313<8\346\014;\210\231\274\274\200\306d<\206h\374:\211\242J\275\324\240\337\274#\341\301\2739G\031\275\251\236\224;rNu<P\026-<\r?o=\\b1\274}\237\260\274j\371\241<\316z\256\274\306\247\326<\351u\364\273\314\273\202\274]\233\230\275H\006\372<3\303\014=\372\221\262=\316I\222\275:\371I\273iI\223<\335\337g\273\2745\236<&\301\242\2734X\021=*u\203<|\226u=P`\023\275_4\023=\006\201\007\274\363\373\250\275\363\226\016=TM\314\274\275\335\237\274)\376K\275\020\273\317<%\206\200=\325\036+\275\017\356\254;7\266\220=\340\353u\2749\247>\274\221\304Q\275J\372\321<Xk\037\274\224\001R=\262\244\302\274\354\207[=-\341\013\274\216\2439=\262\231)<\343L\035\2754\202\364<?\0257=\037\001\223<]\247\257\274\231c\245\275\205r\220\275\214#\273<\260\265Y\274b\341\254\275\361W\361<\035\311\270\274\316}6=P\205\233\274\303l]\274\337)E\275y\036\243=\351\2068\274\000q(=)G\370=*\247\030<\225.\201\275_\033\241<\326\276\362\275Z\266^=\261\240\230\274\212\217(\275uD\320<\243\020C\275\360s\303=\300\370,\274\033s\326\275\276Z\204<};\024\274`Q\224=\362\217\031=\235\200e=\032a\2519s\3771=\251\333G\275Z\302&=\'\200Z\275\252\036\314\274g\267\006\274m\371\226\275\003\357g\275P!\255\274\327f\r\275M\206\267\273\300\242g=[\001\032\275\333\275\333<$\270\327\271\237\265\274<\316L@<\000\030\204\274\216IL=\365og\273\035\362\253<\317\335\016=\233\"\335\274q\201f=K\036\221=\034|\244=dg\217\275j\035\206\275;\346\321<\265\212\240\275y>\362=\335\213\314;\250\272\350\274\022\273!\275\207\t|<o\201\001=\231\273\351\274G\210<\274\202@\003\275\177\234\253<\0147\376<\331t\004\275\3214\307\272\203\305\337\274\361.\001\274(\227\330:d\365\220;\302\231\300\274\225 \037\275\200\177\332<Z\267\342<\263\351@=\356\345\331<\231oU<?#\211\274\347\332\220\274>\277\307<\264\261z\275\331{4=\3521\361\273\0011\\\274\002\227x<\256\337\201<\265\277\260\273@\376\033=\377*\267=\251\262}\275>/\236\274\267\024\017\274>\261\2319G0~<\343e/\275\237=\024=\342\020\034\275\222G\"\275\003\375\302\273>#\363\274\035p\033=9\t\376:\344\312\014\275?^\327<[uI\274\273\006\204<\237\371\337<*\310\257\273\350\320\222<%J\337:H\240\030\274\257\213C<|PF=\352\002m;\332\364\022\275H\232\t;m\313L=\017\202>\275XA\244;df\226\273\021\346\223\274\017\024\031\274)\226\013\275\277\241E\274\260\031\371\272\331*\312;\324]\036=\024\316O<\177j\007<D\020\334\274&p\233;KH\366<\0202\222\274\001\244\233;O\0348<(- \275\356\245\214\274\262/\247\274\243\375\211\272\200\305\354<G\326\331\274d\213\256;\342\213\261\274\341\nj\274\306`\344<\034\326\000=E\213\035\274lF\274\274\210R\017\274\3418\021\274\251\201\257\274\036E\250<Xb\271<\236pH\275\213n\266;\"Y$\274\006\216c\272\227e\310<F\n>\275\227\301(=? 